// Auto-generado por ml/entrenar_rna.py — no editar manualmente
// Modelo sin BatchNormalization (fusionada en pesos Dense).
// Compatible con TensorFlowLite_ESP32 v1.0.0 — sin NaN en inferencia.
#ifdef __has_attribute
#define HAVE_ATTRIBUTE(x) __has_attribute(x)
#else
#define HAVE_ATTRIBUTE(x) 0
#endif
#if HAVE_ATTRIBUTE(aligned) || (defined(__GNUC__) && !defined(__clang__))
#define DATA_ALIGN_ATTRIBUTE __attribute__((aligned(4)))
#else
#define DATA_ALIGN_ATTRIBUTE
#endif

const unsigned char model_data[] DATA_ALIGN_ATTRIBUTE = {
  0x1c, 0x00, 0x00, 0x00, 0x54, 0x46, 0x4c, 0x33, 0x14, 0x00, 0x20, 0x00, 0x1c, 0x00, 0x18, 0x00, 0x14, 0x00, 0x10, 0x00, 0x0c, 0x00, 0x00, 0x00, 0x08, 0x00, 0x04, 0x00, 0x14, 0x00, 0x00, 0x00, 0x1c, 0x00, 0x00, 0x00, 0x90, 0x00, 0x00, 0x00, 0xe8, 0x00, 0x00, 0x00, 0x94, 0x2e, 0x00, 0x00, 0xa4, 0x2e, 0x00, 0x00, 0x90, 0x34, 0x00, 0x00, 0x03, 0x00, 0x00, 0x00, 0x01, 0x00, 0x00, 0x00, 0x10, 0x00, 0x00, 0x00, 0x00, 0x00, 0x0a, 0x00, 0x10, 0x00, 0x0c, 0x00, 0x08, 0x00, 0x04, 0x00, 0x0a, 0x00, 0x00, 0x00, 0x0c, 0x00, 0x00, 0x00, 0x1c, 0x00, 0x00, 0x00, 0x3c, 0x00, 0x00, 0x00, 0x0f, 0x00, 0x00, 0x00, 0x73, 0x65, 0x72, 0x76, 0x69, 0x6e, 0x67, 0x5f, 0x64, 0x65, 0x66, 0x61, 0x75, 0x6c, 0x74, 0x00, 0x01, 0x00, 0x00, 0x00, 0x04, 0x00, 0x00, 0x00, 0x98, 0xff, 0xff, 0xff, 0x0a, 0x00, 0x00, 0x00, 0x04, 0x00, 0x00, 0x00, 0x09, 0x00, 0x00, 0x00, 0x64, 0x65, 0x6e, 0x73, 0x65, 0x5f, 0x6f, 0x75, 0x74, 0x00, 0x00, 0x00, 0x01, 0x00, 0x00, 0x00, 0x04, 0x00, 0x00, 0x00, 0x52, 0xd1, 0xff, 0xff, 0x04, 0x00, 0x00, 0x00, 0x05, 0x00, 0x00, 0x00, 0x69, 0x6e, 0x70, 0x75, 0x74, 0x00, 0x00, 0x00, 0x02, 0x00, 0x00, 0x00, 0x34, 0x00, 0x00, 0x00, 0x04, 0x00, 0x00, 0x00, 0xdc, 0xff, 0xff, 0xff, 0x0d, 0x00, 0x00, 0x00, 0x04, 0x00, 0x00, 0x00, 0x13, 0x00, 0x00, 0x00, 0x43, 0x4f, 0x4e, 0x56, 0x45, 0x52, 0x53, 0x49, 0x4f, 0x4e, 0x5f, 0x4d, 0x45, 0x54, 0x41, 0x44, 0x41, 0x54, 0x41, 0x00, 0x08, 0x00, 0x0c, 0x00, 0x08, 0x00, 0x04, 0x00, 0x08, 0x00, 0x00, 0x00, 0x0c, 0x00, 0x00, 0x00, 0x04, 0x00, 0x00, 0x00, 0x13, 0x00, 0x00, 0x00, 0x6d, 0x69, 0x6e, 0x5f, 0x72, 0x75, 0x6e, 0x74, 0x69, 0x6d, 0x65, 0x5f, 0x76, 0x65, 0x72, 0x73, 0x69, 0x6f, 0x6e, 0x00, 0x0e, 0x00, 0x00, 0x00, 0xa8, 0x2d, 0x00, 0x00, 0xa0, 0x2d, 0x00, 0x00, 0x78, 0x2d, 0x00, 0x00, 0xe8, 0x2c, 0x00, 0x00, 0xd8, 0x2b, 0x00, 0x00, 0xc8, 0x23, 0x00, 0x00, 0xb8, 0x03, 0x00, 0x00, 0xa8, 0x00, 0x00, 0x00, 0xa0, 0x00, 0x00, 0x00, 0x98, 0x00, 0x00, 0x00, 0x90, 0x00, 0x00, 0x00, 0x88, 0x00, 0x00, 0x00, 0x68, 0x00, 0x00, 0x00, 0x04, 0x00, 0x00, 0x00, 0xfe, 0xd1, 0xff, 0xff, 0x04, 0x00, 0x00, 0x00, 0x54, 0x00, 0x00, 0x00, 0x0c, 0x00, 0x00, 0x00, 0x08, 0x00, 0x0e, 0x00, 0x08, 0x00, 0x04, 0x00, 0x08, 0x00, 0x00, 0x00, 0x10, 0x00, 0x00, 0x00, 0x24, 0x00, 0x00, 0x00, 0x00, 0x00, 0x06, 0x00, 0x08, 0x00, 0x04, 0x00, 0x06, 0x00, 0x00, 0x00, 0x04, 0x00, 0x00, 0x00, 0x00, 0x00, 0x00, 0x00, 0x00, 0x00, 0x0a, 0x00, 0x10, 0x00, 0x0c, 0x00, 0x08, 0x00, 0x04, 0x00, 0x0a, 0x00, 0x00, 0x00, 0x02, 0x00, 0x00, 0x00, 0x02, 0x00, 0x00, 0x00, 0x04, 0x00, 0x00, 0x00, 0x06, 0x00, 0x00, 0x00, 0x32, 0x2e, 0x31, 0x35, 0x2e, 0x30, 0x00, 0x00, 0x5e, 0xd2, 0xff, 0xff, 0x04, 0x00, 0x00, 0x00, 0x10, 0x00, 0x00, 0x00, 0x31, 0x2e, 0x35, 0x2e, 0x30, 0x00, 0x00, 0x00, 0x00, 0x00, 0x00, 0x00, 0x00, 0x00, 0x00, 0x00, 0x34, 0xcd, 0xff, 0xff, 0x38, 0xcd, 0xff, 0xff, 0x3c, 0xcd, 0xff, 0xff, 0x40, 0xcd, 0xff, 0xff, 0x8a, 0xd2, 0xff, 0xff, 0x04, 0x00, 0x00, 0x00, 0x00, 0x03, 0x00, 0x00, 0x08, 0xc8, 0x6d, 0xbe, 0x59, 0xdb, 0xf9, 0x3d, 0x69, 0xd4, 0x24, 0x3f, 0x82, 0x8e, 0x00, 0xbd, 0x0d, 0xe5, 0x09, 0xbe, 0xdf, 0x47, 0x0b, 0x3d, 0x31, 0xb6, 0x8f, 0xbe, 0xf5, 0xbb, 0x98, 0x3d, 0x8b, 0xb0, 0x49, 0x3f, 0xd3, 0xcb, 0x99, 0xbe, 0x50, 0xb1, 0x24, 0x3e, 0xf3, 0x66, 0x32, 0xbd, 0x90, 0x34, 0x46, 0xbf, 0x2b, 0x7a, 0x29, 0xbe, 0x9c, 0xe6, 0x22, 0x3e, 0xf9, 0xc5, 0x99, 0xbe, 0x4a, 0xb0, 0x02, 0x3e, 0x9e, 0xb7, 0x1d, 0x3f, 0x87, 0x59, 0x78, 0xbd, 0x1d, 0xae, 0xd3, 0x3d, 0x34, 0x99, 0xaf, 0x3e, 0x96, 0x77, 0x0c, 0xbf, 0x51, 0x9a, 0x02, 0xbc, 0xf0, 0x02, 0x70, 0xbb, 0xf0, 0x54, 0x0c, 0x3f, 0xd8, 0x06, 0xcc, 0xbe, 0xe6, 0xe4, 0xdc, 0xbe, 0x39, 0xe2, 0x38, 0xbe, 0x95, 0x0b, 0x2e, 0x3f, 0xe0, 0x36, 0xd2, 0x3e, 0x73, 0xfd, 0xa0, 0xbe, 0x12, 0xab, 0x3a, 0xbe, 0x49, 0x8d, 0x6e, 0xbe, 0x3d, 0xc7, 0xcd, 0x3e, 0x3b, 0xe8, 0x21, 0x3f, 0x12, 0x54, 0x1d, 0x3e, 0xb7, 0xd8, 0x74, 0x3e, 0xc3, 0x80, 0x0b, 0x3e, 0x7d, 0xa7, 0x93, 0xbe, 0xfb, 0x49, 0xb0, 0xbd, 0x91, 0xa9, 0x54, 0x3f, 0x77, 0x14, 0xbe, 0xbe, 0x23, 0xe1, 0xc7, 0xbd, 0x7f, 0xbd, 0x80, 0x3e, 0x58, 0x9a, 0x12, 0xbc, 0x26, 0x74, 0x45, 0x3e, 0x30, 0xd7, 0x07, 0xbe, 0xf4, 0x42, 0x2d, 0x3d, 0x95, 0x3e, 0xfd, 0xbd, 0x8b, 0x39, 0x1a, 0x3f, 0xb0, 0x7f, 0x92, 0x3e, 0x02, 0xf0, 0xed, 0xbc, 0x6a, 0xbb, 0x76, 0x3e, 0x06, 0xc8, 0x23, 0xbe, 0x44, 0xda, 0x6a, 0xbd, 0x80, 0x39, 0x94, 0x3e, 0xdf, 0xd8, 0x0f, 0x3f, 0xb5, 0xb0, 0xcf, 0xbe, 0xed, 0xe3, 0xf5, 0xbe, 0x50, 0xa4, 0x27, 0xbe, 0x05, 0x1b, 0x32, 0xbe, 0x91, 0x61, 0x92, 0x3b, 0xe6, 0x14, 0x4c, 0x3e, 0x9a, 0xc7, 0x13, 0xbe, 0x68, 0xa8, 0x83, 0x3e, 0x53, 0x3e, 0xfd, 0x3c, 0x2c, 0x66, 0x9c, 0x3d, 0x94, 0x5e, 0x91, 0xbe, 0x56, 0xe8, 0x07, 0xbf, 0x09, 0xbd, 0xaf, 0xbd, 0x56, 0xff, 0x54, 0xbe, 0xc7, 0x0e, 0x21, 0xbf, 0xfa, 0x9d, 0x73, 0x3f, 0x69, 0x53, 0x11, 0xbe, 0xe0, 0x48, 0x05, 0xbf, 0x27, 0xaf, 0x8f, 0x3e, 0xa0, 0x35, 0x5a, 0xbe, 0x56, 0x81, 0xa9, 0x3b, 0x7a, 0x49, 0x5d, 0xbf, 0x19, 0xec, 0x0d, 0xbd, 0xee, 0x2f, 0xce, 0x3d, 0x1d, 0xee, 0x9b, 0x3e, 0x4e, 0x61, 0x3f, 0x3e, 0x02, 0x50, 0x37, 0xbe, 0xa5, 0x97, 0x13, 0xbf, 0x3e, 0x07, 0x07, 0x3f, 0x45, 0xd7, 0x18, 0x3e, 0x90, 0x87, 0x3f, 0xbf, 0x2a, 0xb9, 0xb6, 0xbe, 0xbd, 0xf6, 0xfa, 0xbc, 0x96, 0x9a, 0xb1, 0xbe, 0x37, 0x51, 0xa4, 0x3f, 0x7b, 0xe7, 0x6d, 0x3f, 0x6d, 0xe6, 0xad, 0xbe, 0xac, 0x4d, 0x1b, 0xbf, 0x06, 0x14, 0xdd, 0x3e, 0x5b, 0xcc, 0xeb, 0xbd, 0x55, 0x07, 0x13, 0xbe, 0x2f, 0x6b, 0xd4, 0xbe, 0xf5, 0x03, 0x3b, 0x3e, 0xb0, 0x01, 0x5b, 0x3e, 0xa6, 0x0a, 0x70, 0xbe, 0x73, 0x07, 0x3f, 0x3e, 0x74, 0x02, 0x8c, 0xbe, 0xbb, 0xd4, 0x05, 0x3f, 0x12, 0x36, 0x7d, 0x3e, 0xea, 0x94, 0x89, 0x3d, 0xdd, 0x73, 0x98, 0xbe, 0xb0, 0x96, 0xff, 0x3d, 0x8d, 0xc6, 0x0c, 0xbd, 0x50, 0x99, 0x92, 0x3e, 0xed, 0x1c, 0x98, 0x3e, 0x5c, 0xb2, 0xe3, 0x3d, 0x49, 0x25, 0xa7, 0x3e, 0x5d, 0xad, 0x0f, 0xbd, 0x82, 0xf9, 0x19, 0x3e, 0x96, 0x6e, 0xe7, 0xbc, 0xbb, 0xf0, 0x7b, 0x3d, 0xc4, 0x33, 0xd6, 0x3d, 0xc2, 0x7b, 0x1b, 0x3e, 0x89, 0xe8, 0xf2, 0xbe, 0x18, 0x32, 0x87, 0x3e, 0x79, 0xf4, 0x58, 0x3e, 0x8d, 0x31, 0x28, 0xbe, 0xeb, 0x73, 0x6b, 0xbe, 0xd9, 0x1e, 0x10, 0x3d, 0xb9, 0x79, 0xa8, 0xbe, 0x2a, 0x28, 0x97, 0x3d, 0x7e, 0x06, 0x87, 0xbe, 0x93, 0x6b, 0x08, 0xbe, 0x13, 0x9d, 0x08, 0xbf, 0x41, 0x5f, 0x02, 0xbe, 0x52, 0xb3, 0x76, 0x3e, 0x8e, 0x56, 0x4e, 0x3e, 0x43, 0xff, 0x0e, 0x3e, 0x09, 0x8a, 0xbe, 0x3d, 0x47, 0x00, 0x87, 0xbf, 0x77, 0x58, 0xb0, 0x3e, 0x07, 0x59, 0x19, 0x3e, 0x31, 0xf3, 0x4c, 0x3e, 0x7e, 0x5e, 0x01, 0xbf, 0x6b, 0x2d, 0x40, 0xbe, 0x60, 0x80, 0x88, 0x3e, 0x41, 0x56, 0x81, 0x3e, 0xba, 0x42, 0x03, 0xbe, 0x6c, 0x3e, 0x96, 0xbf, 0xa2, 0xd2, 0xc0, 0xbe, 0xb5, 0xa8, 0x9b, 0xbd, 0xd4, 0xc7, 0x8c, 0x3e, 0x1f, 0xf7, 0x73, 0x3e, 0x55, 0xfe, 0xae, 0xbd, 0x69, 0xdc, 0xad, 0x3d, 0x74, 0xba, 0x0f, 0xbf, 0x55, 0x61, 0x82, 0x3e, 0xed, 0xe9, 0x5c, 0x3e, 0x92, 0x1e, 0x1c, 0xbe, 0x2e, 0x78, 0x68, 0xbe, 0x9c, 0x79, 0x1e, 0x3d, 0xd8, 0x74, 0x3d, 0x3e, 0xe7, 0xb2, 0x52, 0xbd, 0xe4, 0x7b, 0xc5, 0x3e, 0x3d, 0x27, 0x89, 0xbd, 0x43, 0x33, 0x2b, 0xbf, 0x68, 0x25, 0x7f, 0x3e, 0x21, 0x76, 0xcf, 0xbd, 0x94, 0xd3, 0x8c, 0x3e, 0x48, 0x49, 0x09, 0xbf, 0x17, 0x07, 0x1a, 0x3e, 0x37, 0xd7, 0xa5, 0x3f, 0x16, 0x26, 0x3f, 0x3e, 0x3f, 0x67, 0x6b, 0x3e, 0x75, 0xef, 0xa8, 0xbe, 0x9e, 0x35, 0x6c, 0x3d, 0xcd, 0xbd, 0x5c, 0x3e, 0xc1, 0x67, 0xa0, 0xbd, 0xb7, 0xa5, 0x99, 0xbe, 0x80, 0x64, 0x37, 0xbd, 0x65, 0x74, 0xb1, 0xbe, 0xe3, 0x1e, 0x75, 0x3e, 0x39, 0x03, 0x0a, 0x3e, 0x9e, 0x4a, 0x8f, 0xbe, 0xb7, 0xf8, 0x35, 0x3e, 0x28, 0x1d, 0x54, 0xbc, 0xc7, 0xef, 0x6b, 0xbe, 0x3f, 0xd9, 0x0c, 0x3e, 0xe9, 0xe9, 0x28, 0x3e, 0x8f, 0xee, 0xa1, 0x3e, 0xf5, 0x57, 0x98, 0xbc, 0x89, 0x72, 0x26, 0xbd, 0x1a, 0xe7, 0x7e, 0x3e, 0xd9, 0x6c, 0x98, 0x3e, 0x28, 0x73, 0xf1, 0xbb, 0x96, 0xd5, 0xff, 0xff, 0x04, 0x00, 0x00, 0x00, 0x00, 0x20, 0x00, 0x00, 0x1c, 0xb3, 0x9b, 0xbe, 0xca, 0xc7, 0x60, 0x3e, 0xf2, 0x8c, 0x3c, 0xc0, 0x58, 0xea, 0x10, 0x3f, 0x49, 0xa8, 0xb9, 0x3e, 0x74, 0x2c, 0x9e, 0x3d, 0x9d, 0x2a, 0x8c, 0x3c, 0x97, 0xeb, 0xd1, 0x3e, 0x68, 0xe2, 0x9a, 0xbe, 0x80, 0xa0, 0x9a, 0x3e, 0x5d, 0xc2, 0x23, 0x3f, 0xd7, 0xaf, 0x1c, 0xbe, 0x03, 0x68, 0x7b, 0x3f, 0x90, 0x89, 0x0b, 0xbf, 0x35, 0x21, 0xf5, 0x3f, 0xac, 0x08, 0xde, 0xbc, 0x55, 0x58, 0x67, 0xbd, 0x3d, 0x6e, 0x95, 0x3f, 0x91, 0x27, 0xf2, 0xbe, 0xad, 0xcf, 0x3b, 0xbf, 0xcf, 0x26, 0x7e, 0x3c, 0xe0, 0x3b, 0x65, 0x3e, 0xd9, 0xba, 0xcd, 0x3f, 0x60, 0xad, 0x65, 0x3e, 0x64, 0xbe, 0x01, 0x40, 0x34, 0x6e, 0x55, 0x3f, 0x8b, 0x1b, 0x30, 0xc0, 0x48, 0xe2, 0xbc, 0xbe, 0xb6, 0xbf, 0x79, 0xbf, 0x21, 0x68, 0x78, 0xc0, 0x2f, 0x67, 0xd8, 0xbe, 0xb2, 0xa9, 0xb8, 0xbe, 0xed, 0x63, 0x0b, 0x40, 0x85, 0x39, 0x3d, 0x3f, 0xb5, 0xe9, 0x71, 0xbe, 0xde, 0x63, 0x51, 0x3f, 0xaa, 0x61, 0xe4, 0xbe, 0xe7, 0x8f, 0x28, 0xc0, 0x1a, 0x46, 0xa6, 0x3e, 0xbc, 0x7c, 0x55, 0xbf, 0xd2, 0xac, 0x42, 0xbf, 0x3f, 0x84, 0x95, 0xbf, 0x4c, 0xbf, 0x3d, 0x3f, 0x53, 0x38, 0xe6, 0x3e, 0xf7, 0x43, 0x95, 0x3e, 0xb1, 0x70, 0xad, 0xbe, 0x38, 0xd4, 0x9f, 0x3f, 0xa7, 0xa8, 0x96, 0xbf, 0x5b, 0x9e, 0x49, 0xbe, 0xb3, 0xbd, 0x85, 0x3e, 0x4e, 0xb4, 0x84, 0xbe, 0xa7, 0x7a, 0x67, 0xbe, 0x14, 0x3b, 0x67, 0x3f, 0x71, 0x8b, 0x08, 0xc1, 0xbb, 0x12, 0x0a, 0x3f, 0x09, 0xe3, 0x17, 0x3f, 0x1d, 0x10, 0x81, 0x3f, 0x37, 0x58, 0x6f, 0xc0, 0x84, 0x00, 0xcf, 0x3e, 0x68, 0xf3, 0x1f, 0x3f, 0xf7, 0x98, 0x11, 0x3e, 0xd4, 0x07, 0xb2, 0x3f, 0x8c, 0xd7, 0xab, 0xbe, 0xef, 0xdf, 0xcc, 0xbe, 0xaa, 0x14, 0x2c, 0xbf, 0xef, 0x65, 0xbd, 0xbe, 0xca, 0x99, 0x10, 0x40, 0x65, 0x5d, 0x40, 0xbf, 0x6f, 0xf2, 0xf4, 0x3e, 0x33, 0xb8, 0x17, 0x3d, 0x1f, 0x19, 0x05, 0x3f, 0x4b, 0x10, 0xe9, 0xbf, 0xc8, 0x01, 0xf8, 0x3d, 0x52, 0x6d, 0xbb, 0xbe, 0x93, 0x28, 0xc0, 0xbe, 0x7f, 0xee, 0x6b, 0xbe, 0xb4, 0x19, 0x9e, 0xbe, 0xe0, 0xb7, 0x24, 0x3f, 0x39, 0xf1, 0x95, 0x3e, 0x04, 0xa3, 0xcf, 0x3e, 0x28, 0x51, 0xdc, 0xbf, 0xf6, 0xe7, 0xa3, 0xbf, 0xff, 0x27, 0x5b, 0x3f, 0xd8, 0x48, 0xf0, 0xbe, 0x50, 0x5d, 0xc6, 0xbf, 0xba, 0x8a, 0x30, 0x3f, 0xf0, 0xf8, 0xe2, 0xbe, 0x06, 0x9d, 0x03, 0x3f, 0x45, 0x21, 0x0b, 0x40, 0x4e, 0x28, 0x89, 0x3e, 0x0d, 0x2b, 0x09, 0x3f, 0x9e, 0xdc, 0xa0, 0x3e, 0xde, 0xf9, 0xd5, 0x3f, 0x80, 0x3c, 0xa5, 0x40, 0x4e, 0xac, 0x20, 0x3f, 0xdc, 0x9c, 0xeb, 0xbf, 0x59, 0x03, 0x23, 0xbf, 0x15, 0xda, 0x20, 0x3e, 0xfc, 0x72, 0xf4, 0xbd, 0x12, 0x70, 0x41, 0xbe, 0x06, 0x63, 0x75, 0xbf, 0x4a, 0x8b, 0x0f, 0x3f, 0x95, 0x66, 0x09, 0xbf, 0xe4, 0xe6, 0xf7, 0x3d, 0xb1, 0xa6, 0x7e, 0x3e, 0x4a, 0xdc, 0xa2, 0xbe, 0x94, 0xe5, 0x0f, 0xbe, 0xb6, 0xd1, 0xca, 0xbf, 0x2d, 0x19, 0x66, 0x3e, 0xeb, 0xe3, 0xf8, 0xbd, 0xc9, 0xd0, 0x49, 0x3e, 0xcc, 0x00, 0x0d, 0x3f, 0x57, 0x45, 0x16, 0xbf, 0x18, 0x08, 0x27, 0x3f, 0x85, 0xfe, 0x28, 0xbe, 0xe5, 0x11, 0xce, 0xbd, 0xd7, 0x33, 0x2c, 0xbf, 0x25, 0x80, 0xa5, 0x40, 0x72, 0x6e, 0x33, 0xbf, 0x5e, 0xa9, 0x3f, 0xbf, 0x35, 0x3c, 0x14, 0x3f, 0x8c, 0x24, 0x29, 0x40, 0xc5, 0x52, 0xb0, 0xbe, 0xb7, 0x11, 0xea, 0xbf, 0xe4, 0x69, 0x74, 0xbe, 0xac, 0xd7, 0x57, 0x3f, 0xeb, 0x3d, 0xde, 0xbf, 0xb0, 0xd7, 0xf2, 0xbd, 0x3b, 0xa3, 0x5b, 0x3e, 0x4e, 0x37, 0x1c, 0xbf, 0xf8, 0x2c, 0xea, 0x3f, 0x4c, 0x54, 0x01, 0x3f, 0x2d, 0x62, 0xbb, 0xbe, 0x1f, 0x60, 0x8c, 0xbe, 0xa0, 0x9e, 0xa5, 0xbe, 0x46, 0xc7, 0x82, 0xbf, 0x97, 0x23, 0xa4, 0xbf, 0x11, 0x59, 0x2a, 0x3e, 0x5f, 0x41, 0xa3, 0xbc, 0xb0, 0x46, 0x92, 0x3d, 0xd3, 0x17, 0x9c, 0x3d, 0x66, 0x4e, 0xa9, 0x3b, 0x1f, 0x53, 0x30, 0x3e, 0x54, 0x83, 0xb2, 0x3e, 0xcf, 0x13, 0xf7, 0x3e, 0x18, 0x36, 0x3b, 0xc0, 0xbe, 0xe3, 0x08, 0x3f, 0xb3, 0x81, 0x0f, 0xbf, 0x97, 0x38, 0x89, 0xbf, 0x46, 0xf4, 0x68, 0x3e, 0x39, 0xf1, 0x43, 0xc0, 0xfd, 0x10, 0xe2, 0xbf, 0x51, 0xf9, 0x69, 0x3f, 0xb0, 0x49, 0x0b, 0x3f, 0x71, 0xcc, 0x1e, 0x3f, 0xba, 0x44, 0x9f, 0xbe, 0xd1, 0xe6, 0x85, 0x3f, 0x11, 0xf0, 0x48, 0xc0, 0x50, 0x60, 0xb5, 0x3d, 0x8a, 0x76, 0xef, 0x3e, 0x26, 0xf9, 0x7e, 0xbe, 0xc9, 0x26, 0x18, 0xbf, 0x3f, 0x6b, 0x90, 0xbf, 0x3d, 0xa0, 0xae, 0xbd, 0x05, 0x79, 0xa1, 0x3e, 0xa4, 0x4f, 0xdf, 0x3e, 0x4d, 0xb8, 0x0c, 0x3f, 0x08, 0x82, 0x8a, 0xbd, 0x2d, 0xad, 0xef, 0x3e, 0x4b, 0xcc, 0xc3, 0xbe, 0x3b, 0x02, 0xb1, 0x3e, 0xc4, 0x83, 0x16, 0xbe, 0x35, 0x1c, 0x5c, 0xbf, 0xcf, 0x38, 0xdd, 0xbd, 0x7f, 0xec, 0xbb, 0xbe, 0x4f, 0x04, 0x87, 0x3e, 0x18, 0x6e, 0xa1, 0x3f, 0x12, 0xe7, 0x50, 0xbf, 0x0c, 0x90, 0xf0, 0xba, 0xfb, 0x52, 0xe6, 0xbe, 0xe6, 0x95, 0xb8, 0xbc, 0xac, 0x8a, 0xa7, 0x3e, 0x4a, 0x17, 0x7f, 0xbf, 0x3f, 0x8e, 0x96, 0xbe, 0xf9, 0xcc, 0x68, 0xbe, 0x53, 0x87, 0x02, 0xbf, 0xaa, 0x42, 0x69, 0xbf, 0xc2, 0x49, 0xcb, 0xbe, 0xb1, 0x1f, 0x24, 0xbf, 0xc6, 0x2b, 0x4f, 0x3b, 0xaa, 0xdc, 0x16, 0xbf, 0xe3, 0x0f, 0x0b, 0x3f, 0x7b, 0x9e, 0x2f, 0x3e, 0x79, 0xfe, 0x20, 0xbe, 0xe7, 0x60, 0x47, 0x40, 0x50, 0xd4, 0x7e, 0x3f, 0x1a, 0x8f, 0xc4, 0xbe, 0x7e, 0x38, 0x1c, 0x3f, 0xdd, 0x27, 0x3d, 0xbd, 0x6e, 0xce, 0xa0, 0xbd, 0x68, 0x57, 0xeb, 0x3e, 0x33, 0xb5, 0x2c, 0x3d, 0xb3, 0x2c, 0x84, 0x3f, 0xfe, 0x6d, 0xbd, 0x3e, 0xda, 0xba, 0xb4, 0x3f, 0x43, 0x88, 0x4c, 0x3f, 0x69, 0xf4, 0xb9, 0x3f, 0xb9, 0xc3, 0x9c, 0x3f, 0xab, 0x8e, 0x34, 0xbe, 0x54, 0x7a, 0x94, 0xbf, 0x83, 0x0b, 0xa9, 0x3f, 0xf9, 0x44, 0x8d, 0xbe, 0x6d, 0x24, 0xc5, 0xbf, 0x6f, 0x20, 0x93, 0x3e, 0xe8, 0x0f, 0x84, 0x3f, 0xe5, 0xf4, 0xfd, 0x3e, 0x9b, 0x52, 0x25, 0x40, 0x4f, 0xc2, 0x25, 0x40, 0xf9, 0x58, 0x5c, 0xbf, 0x73, 0x01, 0x13, 0x3f, 0x1e, 0x77, 0x59, 0x3f, 0xf5, 0x5e, 0xff, 0x3f, 0xda, 0xf3, 0xfe, 0x3d, 0x15, 0xba, 0x0b, 0x3f, 0xfb, 0xd2, 0x86, 0x40, 0xd1, 0x5a, 0x12, 0x3f, 0x6a, 0x8e, 0x00, 0x3e, 0x7e, 0x8c, 0xbd, 0x3e, 0x79, 0xef, 0x08, 0x3e, 0x8c, 0x67, 0xbe, 0x3f, 0xa6, 0xc9, 0xd4, 0x3e, 0x05, 0x8b, 0x24, 0x3e, 0xff, 0x93, 0x38, 0x3f, 0xfa, 0x27, 0xa3, 0x3f, 0xe8, 0xd6, 0x6c, 0xbe, 0x0d, 0x7d, 0xcb, 0x3e, 0x40, 0x3f, 0x14, 0xbf, 0x77, 0x6d, 0x3d, 0x3f, 0xfb, 0xb8, 0x84, 0x3e, 0xfc, 0x53, 0xa5, 0x3e, 0x16, 0xb2, 0xaa, 0xbf, 0x32, 0xe4, 0x14, 0x3f, 0xcd, 0xd3, 0xd2, 0x3e, 0x24, 0x84, 0xbf, 0xbd, 0x91, 0x57, 0x98, 0x3e, 0xe0, 0x30, 0x07, 0x40, 0xdc, 0x8d, 0x2d, 0xc0, 0x41, 0x65, 0x05, 0x3f, 0x32, 0xdf, 0x08, 0x3f, 0x23, 0xf2, 0x0d, 0x40, 0xcf, 0x04, 0x5e, 0xbe, 0x07, 0x5d, 0x06, 0xbf, 0x2f, 0x5a, 0x11, 0xbf, 0x70, 0xa7, 0x32, 0x3f, 0x12, 0xc3, 0xa2, 0xbe, 0x7f, 0xd4, 0x87, 0x3e, 0xe0, 0x66, 0x81, 0x3c, 0x05, 0x3c, 0x15, 0xbf, 0x1c, 0x57, 0x38, 0xbe, 0x91, 0x4c, 0xb2, 0xbf, 0x1d, 0x42, 0x5f, 0xbf, 0xda, 0xf4, 0xaa, 0xbe, 0xb0, 0x63, 0x71, 0xbd, 0x00, 0x41, 0x71, 0xbf, 0xa3, 0xe8, 0x3c, 0x3f, 0xac, 0x61, 0x0d, 0xbe, 0x65, 0x12, 0xbd, 0xbc, 0xa3, 0x37, 0x3e, 0xbe, 0xed, 0xaf, 0xce, 0xbe, 0xa3, 0xc9, 0x9a, 0xbf, 0x37, 0x70, 0x83, 0xbf, 0x80, 0x9c, 0xd5, 0xbf, 0x15, 0x0d, 0x94, 0xbe, 0xf4, 0xa8, 0x98, 0xbe, 0x5a, 0xc6, 0x91, 0xbf, 0xc7, 0xa5, 0x88, 0x3d, 0x5a, 0xf8, 0x6d, 0xc0, 0x4c, 0x9d, 0x38, 0xbe, 0x11, 0x46, 0x2e, 0xbf, 0xcf, 0xdf, 0xd4, 0xbe, 0x50, 0x10, 0x30, 0xbe, 0x57, 0x64, 0x0c, 0x3e, 0xa1, 0xc1, 0x87, 0x3f, 0xf5, 0x79, 0xc9, 0x3e, 0x49, 0xef, 0xad, 0x3d, 0xb5, 0x85, 0x07, 0xc0, 0x5d, 0x28, 0x1b, 0x3f, 0x47, 0xed, 0xbd, 0x3e, 0x5e, 0x96, 0x85, 0xc0, 0xf7, 0xe9, 0x41, 0x3e, 0x8d, 0xcc, 0x01, 0x3f, 0x45, 0xe1, 0xdf, 0xbe, 0x5a, 0x89, 0x50, 0x3e, 0x9e, 0xe4, 0xe6, 0x3e, 0x2e, 0x00, 0x52, 0xbf, 0xe0, 0xdd, 0xad, 0x3d, 0xbf, 0xc4, 0x12, 0xbf, 0xcb, 0x54, 0xb0, 0xbf, 0x58, 0x6b, 0xdb, 0x3e, 0x98, 0x2c, 0xca, 0xbd, 0x90, 0xa6, 0xb7, 0xbf, 0x27, 0x2f, 0x0d, 0x3f, 0xcb, 0x45, 0xaa, 0xbf, 0x43, 0x14, 0xa7, 0xbe, 0x30, 0xee, 0x1b, 0x3e, 0xe9, 0x38, 0xba, 0x3d, 0xcb, 0xc2, 0xa1, 0x3e, 0x4c, 0xd0, 0x4f, 0x3d, 0xfc, 0x9b, 0x9f, 0xbf, 0xdd, 0x69, 0x16, 0x40, 0xc9, 0xc4, 0x0c, 0x3f, 0xd1, 0x8e, 0xa8, 0xbf, 0x86, 0x9d, 0xc1, 0x3c, 0xa2, 0x16, 0x7c, 0xbf, 0xa1, 0x94, 0x60, 0xbf, 0xc7, 0x5e, 0xe9, 0xbf, 0xfd, 0x89, 0x94, 0xbf, 0x7a, 0x45, 0x49, 0x3f, 0xb6, 0x64, 0x72, 0x3e, 0x55, 0xc8, 0x2f, 0xbf, 0x4a, 0x54, 0x8f, 0xbd, 0xa3, 0xf2, 0x6f, 0xbd, 0x41, 0xfe, 0x15, 0xc0, 0x32, 0xb0, 0xeb, 0x3d, 0x24, 0xd5, 0xae, 0x3e, 0x1c, 0x59, 0x04, 0x3f, 0x73, 0xee, 0x1a, 0x3f, 0xf8, 0xab, 0x1d, 0x3d, 0x78, 0xae, 0x2e, 0xbd, 0x37, 0x4b, 0x75, 0xbe, 0x20, 0x4c, 0x46, 0x3f, 0x20, 0x07, 0x10, 0xbd, 0x61, 0x5e, 0x53, 0xc0, 0x85, 0x9b, 0xca, 0xbe, 0x2b, 0xdd, 0x9b, 0xbf, 0x16, 0x9c, 0x2c, 0xbf, 0x9a, 0x61, 0xda, 0xbe, 0x4e, 0xbd, 0xc9, 0x3e, 0x13, 0x48, 0xbf, 0xbe, 0x67, 0x7a, 0xb8, 0x3b, 0x2f, 0xe5, 0x8c, 0xbf, 0x0d, 0x0b, 0x4c, 0xbf, 0xce, 0x9d, 0xae, 0x3f, 0x42, 0x04, 0x32, 0x3f, 0x39, 0xcd, 0xbb, 0xc0, 0x3f, 0x9c, 0xc6, 0xbe, 0x9a, 0x3b, 0x97, 0x3c, 0xac, 0xf6, 0xb1, 0x3e, 0xbd, 0xe4, 0x2c, 0xbf, 0xf5, 0xff, 0x1d, 0xc1, 0xc0, 0x5c, 0x84, 0xbe, 0x04, 0x0a, 0x19, 0xbf, 0x2b, 0x36, 0xb1, 0xbf, 0x9e, 0xfb, 0xa9, 0xbe, 0x01, 0xf4, 0x61, 0xbe, 0x9e, 0xdf, 0xeb, 0xbb, 0x98, 0xdb, 0x42, 0xbf, 0x8f, 0x22, 0xfc, 0xbf, 0xe1, 0x5a, 0x84, 0x3c, 0x81, 0x8e, 0x3f, 0xbf, 0x3c, 0xe1, 0xca, 0xbf, 0xca, 0x75, 0xa4, 0xc0, 0x6f, 0xef, 0x06, 0xbd, 0x21, 0xbd, 0x07, 0xbd, 0x24, 0x5a, 0xad, 0x3e, 0x35, 0x56, 0x62, 0xbe, 0xef, 0x28, 0x0d, 0x3f, 0x12, 0x7f, 0x74, 0xbf, 0x92, 0xd9, 0xda, 0xbf, 0xbf, 0xcb, 0x9e, 0x3e, 0xd2, 0xce, 0xa3, 0xbc, 0x21, 0x6c, 0x61, 0x3f, 0x5c, 0x35, 0x68, 0x3f, 0x0b, 0x40, 0x80, 0x3f, 0xd0, 0x42, 0xfb, 0xbe, 0x8b, 0xa8, 0xbf, 0xbf, 0x54, 0x5d, 0x2d, 0x3c, 0x1a, 0xa2, 0x23, 0xc0, 0x23, 0x2c, 0xc6, 0xbd, 0xb8, 0x45, 0x7c, 0x3f, 0x38, 0xc5, 0x46, 0xbe, 0xbf, 0x35, 0x69, 0xbf, 0x74, 0xd8, 0x29, 0xbf, 0x87, 0x41, 0x41, 0xbf, 0x9c, 0x76, 0x9c, 0xbe, 0x7b, 0x34, 0xee, 0x3e, 0x87, 0x0b, 0x4c, 0xc0, 0xdc, 0x3c, 0xba, 0xbf, 0x62, 0x11, 0xb3, 0x3d, 0x53, 0x4c, 0x13, 0x3f, 0xae, 0xb8, 0xd8, 0xbe, 0xd9, 0x28, 0x48, 0x3f, 0xee, 0xdc, 0x84, 0x3e, 0xfb, 0xd4, 0x0d, 0xbe, 0x64, 0xf8, 0x04, 0xbd, 0x8c, 0xf3, 0x27, 0x3c, 0x8d, 0xfd, 0x82, 0x3c, 0x8c, 0x21, 0xb0, 0xbf, 0x14, 0xc0, 0x54, 0xc0, 0xc1, 0x06, 0x84, 0xbe, 0xdb, 0xa1, 0xd7, 0xbf, 0x2e, 0xca, 0x5f, 0x3f, 0x7c, 0x74, 0x86, 0xbf, 0x37, 0x27, 0xa0, 0x3e, 0xc7, 0xc6, 0x89, 0xbf, 0x64, 0xa9, 0x03, 0xbc, 0x8e, 0xb2, 0xa0, 0x3f, 0xb0, 0xac, 0xae, 0x3e, 0x4d, 0x98, 0xe9, 0x3f, 0xcf, 0x0b, 0xe6, 0x3f, 0x55, 0xf7, 0x2d, 0xbf, 0xb3, 0xc3, 0x11, 0x3e, 0x4a, 0xef, 0x0e, 0xc0, 0x1c, 0x79, 0xac, 0xc0, 0x28, 0x1f, 0x65, 0x3e, 0x32, 0x94, 0xbd, 0xbe, 0xd9, 0xf3, 0x91, 0xc0, 0x5e, 0x29, 0x02, 0xbf, 0x70, 0x3b, 0xdb, 0x3e, 0xf3, 0x95, 0xc4, 0x3e, 0xa1, 0xc9, 0xe3, 0xbe, 0xfa, 0x92, 0xd9, 0xbf, 0x69, 0x5a, 0x75, 0xbe, 0x83, 0x5b, 0x9a, 0xbf, 0x39, 0x6e, 0xc6, 0xbf, 0x90, 0x39, 0x30, 0x3f, 0x6c, 0x0c, 0xc1, 0x3e, 0xee, 0xad, 0xd8, 0x3d, 0x87, 0x60, 0xf1, 0x3e, 0xb8, 0x9f, 0xf4, 0x3d, 0xc9, 0x43, 0x09, 0xbf, 0x85, 0x77, 0x7d, 0xbe, 0x0c, 0xad, 0xf9, 0xbd, 0xed, 0x0f, 0xc5, 0xbe, 0x51, 0xfa, 0x8a, 0x3e, 0x37, 0x6b, 0x40, 0xbe, 0xfd, 0xe7, 0x01, 0xbe, 0xd8, 0x27, 0xab, 0xc0, 0x99, 0x07, 0x5e, 0xbf, 0x0f, 0xae, 0xce, 0xbf, 0xc0, 0x76, 0x4d, 0x3f, 0xd5, 0xb8, 0x5f, 0xc0, 0x05, 0x07, 0x64, 0x3d, 0x01, 0xb2, 0x3a, 0x40, 0xa3, 0xb2, 0xa1, 0x3e, 0x4d, 0xf3, 0x47, 0xbf, 0xed, 0xf5, 0x85, 0x3d, 0xd9, 0xd8, 0x6a, 0xbf, 0x08, 0x18, 0x3d, 0x3e, 0x9f, 0x19, 0x1e, 0xbe, 0x15, 0x6e, 0x84, 0xc0, 0xc4, 0x15, 0x73, 0xbc, 0x1a, 0x1d, 0x3b, 0xbe, 0x3d, 0xff, 0xd6, 0x3e, 0x90, 0xb6, 0x8e, 0x3e, 0x71, 0xc2, 0x90, 0xbd, 0x22, 0xb5, 0x00, 0x3e, 0x5c, 0xb9, 0xda, 0x3e, 0xe2, 0x90, 0xd6, 0xbe, 0x17, 0xe8, 0x83, 0x3e, 0xbb, 0x23, 0xc9, 0xbf, 0x32, 0x5f, 0xf2, 0x3e, 0x83, 0x37, 0x2b, 0xbe, 0xc4, 0xec, 0xd7, 0xbe, 0x09, 0x67, 0x7b, 0xbe, 0x66, 0xc4, 0x79, 0x3f, 0x84, 0xc9, 0x1f, 0x3c, 0xc4, 0x58, 0xcf, 0xbe, 0x55, 0x80, 0xce, 0x3f, 0x57, 0xd6, 0x89, 0xbe, 0xab, 0x46, 0xb8, 0x3f, 0xaf, 0xd4, 0x2d, 0x3f, 0x4c, 0x69, 0x2e, 0xc0, 0x0d, 0xd8, 0x14, 0xc0, 0xed, 0x02, 0x21, 0xc0, 0x5f, 0x5e, 0x9b, 0xbe, 0x85, 0xe6, 0xb9, 0xbf, 0xd1, 0x96, 0x25, 0xc1, 0x49, 0x35, 0x1f, 0xbe, 0xd7, 0xd1, 0xff, 0xbe, 0x96, 0xfd, 0x0e, 0xbd, 0xe9, 0x4b, 0x89, 0x3e, 0x06, 0x25, 0xd6, 0xbd, 0xb5, 0xf0, 0xe1, 0xbf, 0xfd, 0x7a, 0x1f, 0x3e, 0x96, 0xa2, 0xed, 0xbf, 0xda, 0x56, 0x04, 0xbf, 0xc3, 0x2c, 0x0f, 0xbf, 0x46, 0x58, 0x89, 0xbf, 0x62, 0xf9, 0x64, 0xc0, 0x89, 0x66, 0xc3, 0xbe, 0xac, 0x51, 0x15, 0xbe, 0xb3, 0xfe, 0x8b, 0xbe, 0x8a, 0x2c, 0x69, 0x3e, 0x24, 0x4e, 0x04, 0xbf, 0xe6, 0x2e, 0x99, 0xbf, 0xdc, 0xc2, 0x68, 0xbf, 0x93, 0xb7, 0x1e, 0x3d, 0xf5, 0x5b, 0x13, 0xbc, 0xbc, 0x13, 0x7d, 0x3f, 0xef, 0x75, 0x7f, 0x3e, 0xc9, 0xe1, 0x80, 0xc0, 0xd9, 0x26, 0x0f, 0xbe, 0xb1, 0xfd, 0x0b, 0x40, 0x93, 0x9f, 0xd2, 0x3e, 0xba, 0xb9, 0x3f, 0xc0, 0x95, 0x5e, 0x94, 0xbc, 0xc9, 0x48, 0x38, 0x40, 0x94, 0xc9, 0x03, 0xbf, 0xd0, 0x9b, 0xe9, 0xbf, 0x77, 0x31, 0xca, 0xbf, 0x21, 0x84, 0x24, 0xbd, 0x38, 0xa8, 0x18, 0xbf, 0x4c, 0xc4, 0x88, 0xbe, 0x70, 0xa9, 0x9c, 0xbf, 0x92, 0xd9, 0x75, 0x3d, 0x38, 0x64, 0xa3, 0xbe, 0xa6, 0xc0, 0x00, 0xbe, 0xad, 0x30, 0x04, 0x3d, 0x86, 0xd3, 0x45, 0x3e, 0x2b, 0x36, 0x7f, 0x3e, 0x15, 0x39, 0x30, 0x3c, 0x96, 0xeb, 0xb2, 0xbe, 0x44, 0xe2, 0xf2, 0xbc, 0xcb, 0x44, 0x84, 0x3e, 0x00, 0x7e, 0xbd, 0x3e, 0x76, 0xb3, 0x92, 0xbd, 0x3b, 0x24, 0x54, 0x3f, 0x9b, 0x3d, 0x62, 0xbf, 0x34, 0x28, 0x34, 0x3d, 0x87, 0x79, 0x62, 0x3f, 0xf4, 0x27, 0xb8, 0xbd, 0x8f, 0xb1, 0x4a, 0xbf, 0xc0, 0x94, 0xaf, 0x3e, 0xa5, 0x32, 0xa7, 0x3e, 0xc6, 0x7c, 0xad, 0x3c, 0x79, 0xdd, 0x9b, 0xbe, 0x6c, 0xec, 0x5c, 0x3f, 0x62, 0x96, 0xf3, 0xbe, 0x35, 0x47, 0x8c, 0xbf, 0xe8, 0x6a, 0x9d, 0xbf, 0x44, 0x95, 0x3f, 0xc0, 0x29, 0xaa, 0xa1, 0xbf, 0xd6, 0xe8, 0x30, 0x3e, 0x51, 0xa9, 0xdc, 0xbe, 0x67, 0x0f, 0x42, 0xbd, 0xe3, 0x43, 0x1a, 0xbf, 0xf7, 0xe6, 0x57, 0x3d, 0x2f, 0x3d, 0xed, 0xbe, 0xfb, 0x2b, 0xb3, 0x3e, 0x85, 0x6a, 0x6d, 0xba, 0x25, 0xe1, 0xf0, 0xbe, 0x71, 0x89, 0x84, 0x3e, 0x1a, 0x28, 0x9a, 0x3f, 0x34, 0xf1, 0x04, 0xbe, 0xa3, 0xd3, 0x2a, 0x3f, 0xf4, 0x23, 0xe8, 0xbc, 0x9c, 0x18, 0x1f, 0xc0, 0x75, 0xaa, 0x2b, 0xbf, 0x63, 0x00, 0x59, 0x3e, 0x06, 0x5a, 0xa4, 0xbf, 0x91, 0x7c, 0x15, 0x3f, 0x68, 0xf4, 0xfc, 0xbf, 0x71, 0x32, 0xbb, 0xbc, 0x62, 0x2c, 0xbf, 0x3e, 0x7c, 0xa3, 0xaf, 0xc0, 0x52, 0x5f, 0x71, 0xbf, 0xfc, 0x0c, 0x33, 0x3f, 0x87, 0xb9, 0xce, 0x3e, 0x00, 0x08, 0xcf, 0xbf, 0x96, 0x12, 0x49, 0xbe, 0xdf, 0x24, 0x5d, 0xbe, 0x9c, 0xa8, 0x26, 0xbe, 0x1c, 0x82, 0x33, 0xbc, 0xa5, 0x53, 0xce, 0xbc, 0x45, 0xcf, 0x9e, 0x3e, 0x7c, 0x9b, 0xcf, 0x3d, 0x25, 0x1d, 0xae, 0xbe, 0xf8, 0x29, 0x8b, 0xc0, 0x1c, 0xe7, 0xd1, 0xbe, 0x16, 0xd3, 0xa7, 0xbd, 0x6d, 0x80, 0x53, 0x3f, 0x04, 0xd3, 0x36, 0x3d, 0x44, 0x5e, 0xe7, 0x3f, 0xa7, 0x34, 0x29, 0x3f, 0x3d, 0xf2, 0x10, 0x3f, 0x48, 0xd2, 0x6c, 0x3e, 0x99, 0x75, 0x37, 0x3e, 0xa8, 0xdc, 0xdc, 0x3e, 0x73, 0xf2, 0x45, 0xbf, 0xed, 0x06, 0x61, 0x3f, 0xe2, 0xc8, 0x2f, 0x3f, 0x2b, 0x8b, 0x96, 0xbf, 0xc6, 0x53, 0xe5, 0x3f, 0xd2, 0x2b, 0x4d, 0xbf, 0x0d, 0xe6, 0x2b, 0x3f, 0xa9, 0x04, 0xfe, 0xbf, 0x5b, 0x38, 0x22, 0xbe, 0x77, 0xac, 0xf2, 0x3d, 0x00, 0xd1, 0x6f, 0x3f, 0x09, 0xdb, 0xec, 0x3f, 0xd9, 0x40, 0x45, 0xbf, 0x7f, 0xa3, 0xa2, 0xbf, 0x8c, 0xe0, 0x10, 0x3e, 0xf1, 0xf3, 0x1c, 0xc0, 0x29, 0xd0, 0xb3, 0xc0, 0xa5, 0x95, 0x6e, 0x3e, 0xe3, 0xb6, 0x4f, 0xbf, 0xcf, 0x40, 0x52, 0xbf, 0x7e, 0xfe, 0xf3, 0x3d, 0x8d, 0x2d, 0xcf, 0x3c, 0x28, 0xee, 0xa5, 0x3e, 0xe9, 0xff, 0xc3, 0xbd, 0xca, 0xee, 0xae, 0xbf, 0x22, 0xc9, 0x22, 0xbd, 0xdb, 0x30, 0x44, 0xbf, 0x58, 0x99, 0xe7, 0xbf, 0xde, 0xd2, 0x56, 0x3b, 0x79, 0x8d, 0x49, 0x3f, 0x21, 0x38, 0xde, 0x3e, 0x99, 0x8a, 0x48, 0xbe, 0xc7, 0x97, 0x0a, 0x3e, 0xc5, 0xfc, 0x2d, 0x3e, 0x36, 0x0a, 0xd6, 0x3e, 0x2a, 0x46, 0x51, 0xc0, 0x46, 0x34, 0x46, 0xbe, 0xe4, 0xea, 0xfc, 0x3c, 0x0b, 0x6b, 0xd7, 0x3e, 0x86, 0xcb, 0x88, 0x3d, 0x75, 0x09, 0x8d, 0xc0, 0xd7, 0x94, 0x39, 0xbf, 0xfb, 0xaa, 0x32, 0x3f, 0xf5, 0x89, 0x61, 0xbf, 0x7e, 0xc5, 0x46, 0xc0, 0xb7, 0x0f, 0x7b, 0xbb, 0xfc, 0xb1, 0x9b, 0x3f, 0x68, 0x98, 0x1c, 0x3e, 0x7c, 0x4b, 0xa9, 0x3f, 0xef, 0xf3, 0x7b, 0xbe, 0xd5, 0xf2, 0x2a, 0xbf, 0x90, 0xd6, 0x76, 0xbe, 0xcd, 0xba, 0xfe, 0xbd, 0x3a, 0x55, 0xa5, 0xc0, 0xef, 0xcb, 0x1d, 0x3f, 0x3b, 0x79, 0x29, 0xbe, 0x8a, 0x48, 0xc8, 0x3f, 0x75, 0x4a, 0x26, 0x3f, 0xdd, 0x86, 0xc7, 0x3f, 0x8a, 0xdc, 0x35, 0x3f, 0x61, 0x5d, 0x0c, 0x3f, 0x47, 0x46, 0xd7, 0x3e, 0x5c, 0x84, 0x17, 0x3f, 0xdf, 0xdb, 0x86, 0x3c, 0xf1, 0x61, 0x8e, 0x3e, 0x3e, 0x9c, 0xb2, 0xbf, 0xea, 0xe5, 0x1f, 0x3f, 0x7f, 0x6e, 0x47, 0x3e, 0xc9, 0x48, 0x34, 0x3f, 0xc5, 0xa9, 0x08, 0x3f, 0x67, 0xa6, 0x6f, 0xbf, 0x81, 0x8e, 0x9c, 0x3f, 0xb9, 0xc4, 0x8c, 0x3f, 0xf6, 0x06, 0xfd, 0xbe, 0x87, 0x69, 0xa5, 0x3f, 0x19, 0x2c, 0xe8, 0x3f, 0x0c, 0xd2, 0xf0, 0xbf, 0xc4, 0x8b, 0x44, 0xbf, 0x71, 0x64, 0xfa, 0x3d, 0x71, 0xbb, 0x0d, 0xc0, 0x08, 0x3a, 0x1a, 0xc1, 0xeb, 0xc0, 0x0d, 0x3f, 0xca, 0x58, 0x1f, 0xbf, 0x03, 0x5c, 0x14, 0x3f, 0xc8, 0xb1, 0xa1, 0x3c, 0x18, 0x05, 0xa6, 0x3e, 0xa5, 0x2d, 0x99, 0xbf, 0x81, 0x3b, 0xa7, 0x3e, 0xcf, 0x02, 0xc4, 0xbf, 0x47, 0xc4, 0xc6, 0x3e, 0x2d, 0x6e, 0x0f, 0xbe, 0x96, 0x00, 0x59, 0xbe, 0xf8, 0xd7, 0x59, 0x3c, 0x5e, 0x4c, 0x89, 0xbf, 0xb9, 0x9f, 0xdc, 0x3e, 0x62, 0x6a, 0x0a, 0x3e, 0xbb, 0x39, 0x1b, 0xbe, 0x58, 0xad, 0x78, 0xbc, 0x4e, 0x03, 0xe3, 0xbe, 0x72, 0xfb, 0x9d, 0xbf, 0x5f, 0x50, 0xeb, 0x3e, 0xc9, 0x07, 0xd3, 0xbe, 0x35, 0xd1, 0x40, 0x3e, 0x90, 0xe8, 0xc8, 0x3d, 0x9c, 0x00, 0xc1, 0xc0, 0x58, 0xf5, 0xec, 0x3e, 0x91, 0x69, 0xfa, 0x3f, 0x29, 0x1b, 0x4f, 0x3f, 0x3c, 0x42, 0x9e, 0xc0, 0x4d, 0x1a, 0x83, 0xbe, 0x1f, 0xac, 0xf4, 0x3f, 0xf3, 0x9c, 0xce, 0x3d, 0x43, 0x93, 0xdf, 0xbf, 0xc6, 0xd6, 0x9e, 0xbf, 0xde, 0xe1, 0x0c, 0x3e, 0x46, 0x6b, 0xbd, 0x3d, 0xe1, 0x7d, 0xd7, 0x3d, 0xa9, 0x31, 0xb1, 0x3f, 0x61, 0xf6, 0x5e, 0xbd, 0x79, 0x38, 0x18, 0xbf, 0xca, 0xd9, 0x51, 0xbf, 0xa0, 0xe1, 0xd8, 0xbd, 0x9b, 0x70, 0x07, 0xbe, 0xe9, 0x0f, 0xf9, 0x3c, 0x11, 0x5d, 0xe0, 0xbe, 0x3a, 0xe5, 0xd2, 0xbd, 0x4f, 0x77, 0x86, 0xbe, 0xdf, 0xca, 0x6a, 0xc0, 0x0a, 0x64, 0x9a, 0xbf, 0xd1, 0x11, 0x23, 0xc0, 0xcb, 0x23, 0x1b, 0xbf, 0xb6, 0xeb, 0xfa, 0xbe, 0x40, 0x3b, 0x2e, 0x3f, 0x32, 0x08, 0xb4, 0xbe, 0x73, 0x7b, 0xe5, 0x3d, 0x87, 0x45, 0x81, 0xc0, 0x22, 0xbd, 0x30, 0xbe, 0xf4, 0x68, 0x0d, 0xbf, 0xe6, 0x42, 0x03, 0xbf, 0xc0, 0x6d, 0xd0, 0xc0, 0x7c, 0x83, 0x0e, 0xc0, 0x59, 0xd4, 0xc1, 0x3f, 0xba, 0xa8, 0xbf, 0xbc, 0x44, 0x2b, 0xb2, 0xbf, 0x65, 0x5c, 0xea, 0xbf, 0xe0, 0x8a, 0x1e, 0x3e, 0xdb, 0x26, 0x80, 0x3e, 0x4c, 0xfd, 0x09, 0xc0, 0xb9, 0xc6, 0xe5, 0xbe, 0x83, 0x0a, 0xba, 0x3e, 0x57, 0x74, 0x5d, 0xbe, 0x65, 0x76, 0x3b, 0x3e, 0x9b, 0xe5, 0x6b, 0x3e, 0x87, 0x96, 0x5a, 0xbf, 0x76, 0xf4, 0x81, 0xbe, 0xfe, 0xee, 0x2f, 0xbe, 0x18, 0x91, 0xab, 0xc0, 0x42, 0x02, 0x12, 0xbf, 0x2e, 0x03, 0x97, 0x3e, 0x30, 0x8e, 0x18, 0x3e, 0x5a, 0x93, 0x46, 0xbe, 0xef, 0x48, 0x59, 0xbf, 0x20, 0x04, 0xaf, 0xbe, 0x7f, 0x5a, 0xcd, 0x3f, 0x3a, 0x7d, 0xe8, 0xbe, 0xa1, 0xb8, 0xc3, 0xbd, 0x9e, 0xeb, 0xe0, 0x3c, 0xe7, 0xde, 0xfa, 0xbe, 0x71, 0x68, 0xa9, 0xbf, 0x27, 0xf2, 0xb8, 0xbe, 0x01, 0xf8, 0x31, 0xc0, 0xb8, 0x59, 0x38, 0xbf, 0x52, 0x2a, 0x82, 0x3f, 0xf2, 0x78, 0x28, 0xbe, 0x82, 0x13, 0x7c, 0x39, 0xd7, 0x38, 0x1b, 0x3e, 0x3d, 0x10, 0xe5, 0xbf, 0xa6, 0x5b, 0x48, 0xbf, 0x0d, 0x84, 0x97, 0xbc, 0xe6, 0x50, 0x5e, 0x3e, 0x3a, 0x2d, 0x07, 0x3e, 0x23, 0x41, 0xda, 0x3c, 0x6e, 0x29, 0x38, 0x3c, 0x01, 0x5d, 0xed, 0xbe, 0x83, 0x44, 0x58, 0xbf, 0x6c, 0x27, 0xfe, 0x3e, 0xf6, 0xf8, 0x6b, 0x3d, 0x0c, 0xa7, 0x5b, 0x3c, 0xc6, 0x26, 0x4b, 0xbe, 0xdc, 0x56, 0xfe, 0x3e, 0xfa, 0x77, 0x3d, 0xbf, 0x2b, 0xf7, 0x03, 0xbf, 0xba, 0xbf, 0x1e, 0x3e, 0xe2, 0x4c, 0x2b, 0x40, 0x76, 0xc5, 0xe4, 0x3e, 0x21, 0xb1, 0x58, 0x3f, 0x5e, 0x81, 0x5d, 0xbf, 0xfd, 0xde, 0x50, 0xbe, 0x8c, 0x9d, 0x77, 0xbe, 0xcd, 0x30, 0x4b, 0xbf, 0x2b, 0x12, 0xcd, 0xbe, 0xc9, 0xdd, 0x68, 0xbf, 0xaa, 0xda, 0x11, 0xbf, 0x3d, 0x40, 0x35, 0xc0, 0xce, 0xe0, 0x89, 0xbf, 0x09, 0xa0, 0x08, 0xbf, 0x45, 0xc5, 0xce, 0x3e, 0x09, 0x68, 0xea, 0xbe, 0x19, 0xae, 0xa4, 0xbf, 0x96, 0x07, 0x08, 0x3f, 0x04, 0x3f, 0x9b, 0xbd, 0x97, 0x6a, 0x17, 0x40, 0xc0, 0xac, 0xe2, 0x3e, 0xf8, 0x5f, 0x8c, 0xbf, 0x4d, 0x67, 0x74, 0xbe, 0x33, 0x14, 0xf8, 0x3d, 0x4e, 0xbe, 0x8a, 0xbf, 0x01, 0x71, 0x4d, 0x3e, 0x5d, 0xe5, 0x56, 0xbe, 0x27, 0x92, 0x9a, 0xbe, 0xe1, 0x1e, 0x82, 0xbf, 0xa6, 0xec, 0x48, 0xbf, 0x28, 0x06, 0x57, 0x3e, 0xb0, 0x5f, 0x27, 0x3d, 0x22, 0xf4, 0x4e, 0xbe, 0xbf, 0xa6, 0xb5, 0x3f, 0xc2, 0xc2, 0x06, 0x3f, 0x25, 0xaa, 0x16, 0xbf, 0x26, 0x53, 0xa0, 0x3f, 0xf1, 0x6e, 0x08, 0xbf, 0x3e, 0x97, 0x1b, 0x3e, 0x5a, 0x51, 0x3d, 0x3f, 0x4b, 0xd0, 0xdb, 0x3e, 0xd3, 0x0e, 0xf8, 0xbf, 0x15, 0x06, 0x39, 0xbe, 0xf6, 0x18, 0xbf, 0xbf, 0x40, 0x60, 0xbc, 0xbf, 0x05, 0x50, 0x15, 0xbe, 0x34, 0x3a, 0xa6, 0x3f, 0x01, 0xf6, 0x06, 0xbc, 0x2a, 0xfe, 0x9c, 0x3f, 0x46, 0x1a, 0x03, 0xbf, 0xa7, 0x9a, 0xe9, 0xbd, 0x4b, 0x8f, 0x2d, 0x3e, 0xcf, 0x23, 0x4c, 0xbe, 0xe4, 0xfd, 0x4b, 0x3f, 0x53, 0x01, 0x88, 0x3f, 0xaa, 0x71, 0x86, 0x3e, 0xa5, 0x05, 0xa4, 0xbe, 0xfe, 0x20, 0xe6, 0x3e, 0xe8, 0x2e, 0xd2, 0xbe, 0xdf, 0x73, 0xa4, 0xbe, 0x4c, 0x69, 0x3f, 0x3d, 0x52, 0x10, 0x9d, 0xbd, 0xb1, 0x48, 0xe8, 0xbe, 0xda, 0x47, 0xb0, 0x3f, 0xd4, 0x51, 0x23, 0x3f, 0x7c, 0xa7, 0x1a, 0x40, 0x3e, 0x44, 0xf7, 0x3e, 0xd2, 0xe0, 0x72, 0xbf, 0x40, 0xa5, 0x57, 0xbf, 0x11, 0x16, 0x3d, 0x3f, 0xbe, 0xb0, 0x86, 0x3c, 0x3c, 0xee, 0xb6, 0xbf, 0x8f, 0x05, 0xbd, 0xbe, 0x43, 0x5c, 0xc8, 0xbe, 0x8e, 0x61, 0x06, 0xbf, 0x3f, 0x61, 0xad, 0x3f, 0x1a, 0x7b, 0x21, 0x3e, 0x64, 0xbd, 0x64, 0xbd, 0xf1, 0x97, 0x7b, 0x3e, 0xbe, 0xb0, 0x08, 0x40, 0xe1, 0x6c, 0xcd, 0x40, 0x4d, 0xf3, 0x8b, 0x3f, 0x2b, 0xb6, 0x67, 0xbf, 0x5d, 0xc7, 0x16, 0x40, 0xa5, 0xe8, 0x4d, 0x3f, 0x6d, 0xd7, 0x3f, 0xbd, 0xda, 0x8c, 0x3d, 0xbf, 0xdd, 0x5c, 0x58, 0x3e, 0x2d, 0x60, 0x07, 0x3f, 0x7d, 0x46, 0xf8, 0x3e, 0x60, 0xab, 0xed, 0x3d, 0x54, 0x1e, 0x9d, 0x3e, 0x83, 0x83, 0xc8, 0x3f, 0x70, 0xe9, 0x65, 0x3f, 0x08, 0xab, 0xfc, 0xbe, 0x70, 0x21, 0xbb, 0x3e, 0x60, 0x43, 0x09, 0x3f, 0x62, 0x2e, 0x8b, 0x3f, 0xd3, 0x11, 0x41, 0x3e, 0xf8, 0x6b, 0xd0, 0xbe, 0x03, 0x9f, 0xcb, 0x3e, 0xfa, 0x6a, 0xa2, 0x3e, 0xc0, 0x79, 0x95, 0xbe, 0xa8, 0x51, 0xb1, 0x3e, 0x21, 0x36, 0x47, 0x40, 0xba, 0x80, 0x91, 0xbf, 0x53, 0x41, 0x9d, 0xbe, 0xcf, 0x4c, 0xa9, 0xbf, 0xc7, 0x8e, 0x29, 0x40, 0x1c, 0xe9, 0x52, 0xbe, 0x00, 0x41, 0x0a, 0xbe, 0xad, 0x72, 0x0c, 0xbf, 0x9e, 0x15, 0xec, 0x3f, 0x04, 0xc6, 0xc3, 0xbe, 0xc5, 0x90, 0x82, 0x3f, 0x2e, 0xd1, 0xcc, 0xbe, 0x1e, 0x49, 0xfc, 0xbe, 0xad, 0x54, 0x3a, 0xbf, 0xa0, 0xec, 0x93, 0xbf, 0xd7, 0xa5, 0x31, 0xbf, 0xf0, 0xd6, 0xaf, 0x3f, 0xf0, 0x8e, 0x46, 0xbd, 0x3a, 0x14, 0xf4, 0x3f, 0xb3, 0x74, 0x38, 0x3f, 0x06, 0xf8, 0xd9, 0x3e, 0x48, 0xec, 0x87, 0x3d, 0x6b, 0x67, 0x58, 0x3f, 0xd5, 0x4e, 0x4f, 0xbe, 0x5b, 0xb2, 0x28, 0x3f, 0x87, 0x7f, 0x84, 0xbf, 0xdc, 0x78, 0x14, 0xc0, 0x6e, 0x47, 0x02, 0xc0, 0xdf, 0xa3, 0x4f, 0x3f, 0xf2, 0x0a, 0xe1, 0x3c, 0x44, 0x42, 0x9f, 0x3e, 0xf7, 0x8f, 0xa8, 0x3f, 0xff, 0xcc, 0x27, 0xbf, 0xd7, 0x2e, 0x8e, 0x3e, 0x3e, 0x4a, 0xe6, 0x3d, 0x11, 0x2c, 0x7c, 0xbf, 0xd2, 0x91, 0x26, 0x3f, 0x71, 0x78, 0x6a, 0xbf, 0xc0, 0x3e, 0xbc, 0x3d, 0x04, 0x7f, 0xbd, 0xbf, 0xef, 0x9b, 0x87, 0x3f, 0x08, 0x37, 0x24, 0x3e, 0xc1, 0xcf, 0x01, 0x3e, 0xc8, 0xef, 0xdc, 0xbd, 0x54, 0xfb, 0x89, 0xbc, 0xd7, 0x98, 0x9e, 0x3f, 0x19, 0x2c, 0xfb, 0x3e, 0xe7, 0x66, 0x1c, 0x3e, 0x9b, 0xfa, 0x9c, 0xbe, 0x63, 0xee, 0x83, 0x3f, 0x3b, 0x29, 0x0a, 0xbe, 0x4a, 0xf8, 0xc6, 0x3c, 0x60, 0x23, 0xb8, 0x3d, 0xed, 0x02, 0x75, 0x3e, 0x8d, 0x66, 0xdd, 0x3e, 0x02, 0x0b, 0x82, 0xbf, 0x92, 0xf8, 0x05, 0xbf, 0xae, 0xa4, 0xba, 0xbf, 0xe8, 0xd6, 0x6f, 0x3e, 0x23, 0x9f, 0x46, 0xbf, 0x28, 0x5b, 0x89, 0xbf, 0x42, 0xb8, 0x83, 0xbe, 0x0a, 0x39, 0x51, 0xbe, 0xda, 0xb0, 0xba, 0xbf, 0xe8, 0x60, 0x45, 0xc0, 0xbc, 0x5d, 0x65, 0x3f, 0x18, 0xa0, 0x97, 0x3f, 0xcd, 0x3c, 0x96, 0x3d, 0xab, 0x99, 0x88, 0xbe, 0x7a, 0x1e, 0x58, 0xbf, 0x51, 0xd3, 0x23, 0x40, 0x8d, 0x7f, 0x45, 0x3d, 0xa2, 0x92, 0x0d, 0x3f, 0xf4, 0x9b, 0x8f, 0x3e, 0xc9, 0x3c, 0x47, 0x3e, 0x52, 0x47, 0xe5, 0x3c, 0x07, 0x58, 0x51, 0xbe, 0x30, 0x48, 0x99, 0xbf, 0x29, 0xb9, 0xda, 0xbf, 0x6f, 0x82, 0x3c, 0x3e, 0xee, 0x30, 0xa7, 0xbe, 0xa4, 0x12, 0x88, 0x3d, 0x6c, 0xb7, 0x24, 0x3f, 0x3a, 0xe7, 0x13, 0x3f, 0xac, 0x33, 0x53, 0x3e, 0x22, 0x32, 0xc8, 0xbe, 0xf6, 0xf6, 0x3f, 0x3e, 0xd5, 0x90, 0x4b, 0xbd, 0x11, 0xc3, 0x08, 0xc0, 0x48, 0xe6, 0x4c, 0xc0, 0x01, 0x98, 0x39, 0xbe, 0x38, 0x45, 0x21, 0xbe, 0xbc, 0x3a, 0xdb, 0x3d, 0x3c, 0xb4, 0x92, 0x3d, 0x51, 0x3a, 0xbb, 0x3c, 0x22, 0x34, 0x3c, 0xbf, 0x6b, 0x9f, 0x13, 0x3f, 0x77, 0x45, 0x65, 0x3e, 0xb4, 0x4d, 0x94, 0x3f, 0x4c, 0xab, 0x1a, 0x40, 0x62, 0x11, 0xed, 0x3f, 0x16, 0x12, 0xb6, 0xbd, 0xfc, 0x4a, 0x37, 0x3d, 0xdf, 0xba, 0xb7, 0x3f, 0x6e, 0xbe, 0x8b, 0xc0, 0x93, 0x5f, 0x4c, 0x3f, 0xb3, 0xb6, 0x00, 0x3f, 0xeb, 0x7c, 0x94, 0xc0, 0x2c, 0x27, 0x90, 0x3c, 0xb1, 0x52, 0x38, 0xbd, 0x68, 0x12, 0x26, 0x3f, 0x45, 0x37, 0x4c, 0xbf, 0xee, 0x6e, 0x08, 0xbf, 0x46, 0x79, 0x32, 0xbf, 0xb7, 0x1d, 0x83, 0xbd, 0x42, 0xc9, 0xac, 0xbe, 0x2a, 0x56, 0xa9, 0xbe, 0x5f, 0x99, 0xcb, 0x3f, 0xb1, 0x15, 0xb6, 0xbb, 0x19, 0x98, 0x92, 0x3e, 0x88, 0x9e, 0x2c, 0x3e, 0xcb, 0xf6, 0xbc, 0xbf, 0x8e, 0x2e, 0x87, 0xbc, 0x06, 0x0f, 0x0c, 0xbf, 0xc5, 0xb8, 0x09, 0xbf, 0xc4, 0x60, 0x50, 0x3d, 0xab, 0x84, 0xdf, 0xbe, 0x19, 0x60, 0x14, 0xbf, 0xbb, 0xb3, 0xb5, 0xc0, 0x5f, 0x31, 0x2a, 0xbf, 0xb3, 0x5f, 0x51, 0xc0, 0xe0, 0x0e, 0xcc, 0x3e, 0x64, 0xd9, 0x83, 0xc0, 0x56, 0xdd, 0x00, 0xbd, 0x31, 0x9f, 0x07, 0x3e, 0x8a, 0x5a, 0x1d, 0x3c, 0x07, 0x10, 0xd4, 0xbf, 0x30, 0x6f, 0xa9, 0x3f, 0xe0, 0xbb, 0x90, 0xbe, 0x13, 0xc0, 0x0d, 0x3d, 0xa2, 0x3b, 0x28, 0xbe, 0x6d, 0xe0, 0x4c, 0xbf, 0xe4, 0xed, 0x91, 0x3f, 0x35, 0x70, 0x0a, 0x3e, 0x6a, 0x80, 0xeb, 0xbd, 0x0e, 0x5e, 0x37, 0x3e, 0xe5, 0x9f, 0xf0, 0x3f, 0x47, 0xa3, 0x9b, 0x3e, 0x11, 0xcc, 0xf8, 0xbd, 0xb5, 0xd7, 0x75, 0x3c, 0x62, 0xdb, 0x14, 0xbe, 0xf9, 0x19, 0x72, 0x3f, 0xfc, 0x2c, 0x88, 0x3f, 0x99, 0x62, 0xac, 0xbe, 0x8a, 0x65, 0x0e, 0x3e, 0x66, 0xf1, 0xb8, 0x3e, 0xf6, 0xd4, 0x7e, 0x3f, 0x22, 0xc8, 0xb2, 0x3f, 0xc7, 0xf3, 0xed, 0x3e, 0xe5, 0xb8, 0x00, 0x40, 0x8b, 0x33, 0x3c, 0x3f, 0xe5, 0xe4, 0xb3, 0xbd, 0x0b, 0xed, 0x9d, 0x3d, 0x81, 0x3c, 0xe2, 0x40, 0x09, 0xa1, 0x6a, 0x3f, 0xf4, 0xf4, 0x3d, 0x3f, 0x35, 0x83, 0xbe, 0xbd, 0x88, 0x7c, 0xec, 0x3f, 0xfd, 0xd1, 0xba, 0xc0, 0xf7, 0x72, 0x00, 0x3d, 0xc0, 0x46, 0xa8, 0x3f, 0x06, 0x8e, 0xa0, 0x3f, 0x02, 0xfd, 0xb7, 0xbe, 0xf8, 0xf8, 0x08, 0x3f, 0x4a, 0x4c, 0xa6, 0x3e, 0x5a, 0xd7, 0xaf, 0x3d, 0x1d, 0x1f, 0x84, 0xbf, 0x99, 0x26, 0xee, 0x3e, 0x09, 0x15, 0xb3, 0x3d, 0x6e, 0x1d, 0x8c, 0x3f, 0x06, 0xfa, 0xef, 0x3f, 0x3e, 0x90, 0x35, 0x3f, 0x23, 0x9c, 0x30, 0xbe, 0xf6, 0x30, 0xa3, 0x3d, 0xb7, 0x42, 0x0a, 0xbf, 0xf3, 0xdf, 0x89, 0xbe, 0x2b, 0xdb, 0x1d, 0xbd, 0x57, 0xfe, 0x51, 0x3f, 0x27, 0x67, 0xfb, 0xbe, 0xeb, 0xda, 0xbd, 0x3e, 0x77, 0x05, 0xec, 0xbe, 0x6a, 0xc0, 0x06, 0xbf, 0xde, 0xc4, 0xdb, 0xc0, 0xd8, 0x0b, 0x96, 0x3f, 0x6e, 0xc0, 0x02, 0x40, 0x0c, 0x95, 0xf1, 0x3f, 0xa9, 0x4b, 0x27, 0xc0, 0xf4, 0x58, 0xa3, 0x3e, 0x0d, 0x5a, 0x2d, 0xbe, 0x51, 0xea, 0x75, 0x3e, 0xee, 0x64, 0x81, 0x3f, 0xf7, 0x44, 0x01, 0x3f, 0x2a, 0xc9, 0x55, 0x3f, 0xb3, 0xb5, 0x42, 0xbe, 0xc0, 0xfa, 0x8e, 0xbe, 0x58, 0x8f, 0x36, 0x40, 0xf7, 0xc7, 0x3b, 0xbf, 0x8a, 0x62, 0xe5, 0xbe, 0x43, 0x28, 0x3a, 0x3e, 0x84, 0x97, 0xe6, 0x3d, 0x6e, 0xaa, 0x45, 0xbe, 0x98, 0x4f, 0x61, 0x3d, 0x9b, 0xec, 0xde, 0xbd, 0x21, 0x85, 0x96, 0xbe, 0x8e, 0x86, 0xe9, 0xbd, 0xe0, 0xd0, 0x84, 0x3e, 0x24, 0x69, 0x2e, 0xbf, 0xff, 0xaf, 0xe0, 0xbb, 0x66, 0xb9, 0x07, 0xbf, 0x98, 0x89, 0xa4, 0x3e, 0xc6, 0xfe, 0xaf, 0x3e, 0x0b, 0x82, 0xbe, 0xbe, 0x76, 0xd2, 0x90, 0xbe, 0xae, 0x93, 0x80, 0x3b, 0x35, 0xa9, 0xae, 0x3c, 0x2d, 0xc9, 0xb0, 0xbe, 0x6b, 0x44, 0xb4, 0x3c, 0xcd, 0xe6, 0x1c, 0x40, 0xaa, 0x5c, 0xef, 0x3e, 0xa2, 0x09, 0xc2, 0x3d, 0x06, 0xbb, 0xe2, 0xbf, 0x4e, 0x0e, 0xc9, 0xbf, 0x72, 0x06, 0xfd, 0xbd, 0xbb, 0x95, 0xd1, 0xbe, 0x80, 0x52, 0xb0, 0x3e, 0x06, 0xf8, 0x3c, 0xbd, 0x8f, 0x58, 0xef, 0xbe, 0xea, 0xd0, 0x62, 0xbf, 0x86, 0xa6, 0xd6, 0xbe, 0x7f, 0x31, 0xf8, 0x3d, 0x6a, 0xd3, 0x8a, 0xbe, 0x3e, 0xf7, 0x29, 0x3e, 0x42, 0x17, 0xed, 0xbd, 0x82, 0x46, 0xf8, 0xbd, 0x72, 0x89, 0x32, 0x3f, 0xd8, 0x37, 0x51, 0xbf, 0x25, 0x1f, 0x3e, 0x3e, 0x7f, 0x12, 0x06, 0xbf, 0x16, 0x74, 0x2a, 0xc0, 0x91, 0xc9, 0x4d, 0xbf, 0xd5, 0x5c, 0xa3, 0x3e, 0xf2, 0x41, 0xd7, 0xbf, 0xd9, 0xb3, 0x11, 0xbf, 0x25, 0xb4, 0xcc, 0xbf, 0x56, 0xd3, 0x12, 0xbf, 0xa6, 0xd6, 0x02, 0xbd, 0xb0, 0x85, 0x62, 0xc0, 0xe9, 0x14, 0x15, 0xbf, 0xff, 0x2a, 0xae, 0xbe, 0x99, 0xe9, 0x39, 0x3f, 0xff, 0x38, 0x4e, 0xbf, 0xbd, 0x04, 0x9e, 0xbe, 0x8a, 0x4b, 0xc6, 0xbf, 0xde, 0x35, 0xf5, 0xbe, 0x52, 0x68, 0xac, 0x3e, 0x63, 0xfb, 0x34, 0xbf, 0xfb, 0xc3, 0x9d, 0xbe, 0xb7, 0x26, 0x87, 0xbe, 0xf8, 0xbd, 0xdd, 0x3d, 0x94, 0x10, 0x25, 0xc0, 0xab, 0x0e, 0xbf, 0x3f, 0xb2, 0x7f, 0xc4, 0x3e, 0x9f, 0x4e, 0xcc, 0xbe, 0x10, 0xb4, 0xe9, 0xbc, 0xba, 0x17, 0xd5, 0xbe, 0x3f, 0xc2, 0xc4, 0x3e, 0xb9, 0xa5, 0x0a, 0xbf, 0x0a, 0xe1, 0xf2, 0x3d, 0x7e, 0xb9, 0x3f, 0xbe, 0xf3, 0x05, 0xc7, 0x3f, 0x44, 0x7a, 0x85, 0x3e, 0x13, 0xe6, 0x39, 0x40, 0x97, 0x13, 0x8e, 0x3e, 0x9c, 0xe6, 0x77, 0x3e, 0x27, 0xb1, 0x8f, 0xbf, 0xce, 0x7c, 0x44, 0x3c, 0xa8, 0x18, 0x28, 0x3e, 0x70, 0x75, 0xb0, 0xbf, 0x81, 0xca, 0x0c, 0xbf, 0x7d, 0xb2, 0x04, 0x40, 0x88, 0xcd, 0xa0, 0x3f, 0x8a, 0x55, 0x43, 0x40, 0x89, 0xfa, 0xbd, 0x3f, 0xf6, 0xf3, 0x57, 0xbd, 0x8d, 0x11, 0xed, 0x3d, 0x1d, 0x9a, 0x87, 0x3f, 0x74, 0x36, 0xb7, 0x40, 0x8b, 0xee, 0x50, 0x3e, 0x8b, 0x0e, 0x2b, 0xbe, 0x49, 0x6f, 0xa8, 0x40, 0xe9, 0x81, 0x3c, 0x3f, 0xcf, 0x1e, 0x8e, 0x3f, 0xce, 0x9a, 0x33, 0x3d, 0x46, 0x70, 0x17, 0xbd, 0xfb, 0x3d, 0x36, 0x3f, 0xf5, 0x3a, 0x12, 0x3f, 0xe1, 0xa2, 0xce, 0x3d, 0x71, 0x6f, 0x61, 0x3f, 0x32, 0xb7, 0xb0, 0xbf, 0x16, 0x91, 0x8f, 0xbf, 0x53, 0x04, 0x22, 0x3e, 0x95, 0x35, 0x24, 0x3c, 0x12, 0x27, 0x48, 0xbe, 0xa5, 0xa1, 0x15, 0x3f, 0xb1, 0xee, 0x9d, 0x3d, 0x97, 0x81, 0x02, 0x40, 0x20, 0x9b, 0xc9, 0x3e, 0xa3, 0x52, 0x9e, 0x3e, 0x44, 0x61, 0x18, 0x3e, 0xcd, 0x37, 0x82, 0x3f, 0x27, 0x85, 0x6a, 0x40, 0xda, 0x01, 0x06, 0xc0, 0xc5, 0x8c, 0x5f, 0x3b, 0x61, 0x95, 0x44, 0xbe, 0x1d, 0x85, 0x0c, 0x40, 0x1b, 0xfe, 0x10, 0x3e, 0x97, 0xe7, 0x6d, 0xbe, 0x4d, 0xe8, 0x67, 0xbe, 0x04, 0xe6, 0xe4, 0x3f, 0x05, 0x9b, 0xf7, 0xbf, 0x5c, 0x39, 0xe6, 0xbe, 0x5d, 0x11, 0xa0, 0x3e, 0x8c, 0xd9, 0x37, 0xbf, 0xfd, 0x29, 0x16, 0x40, 0xa0, 0xc2, 0x8a, 0xbe, 0xcb, 0x48, 0x59, 0xbd, 0x1b, 0x43, 0x1b, 0x3f, 0x80, 0x4b, 0xa0, 0x3e, 0x5d, 0x9a, 0x57, 0x3d, 0x2d, 0x69, 0x70, 0x3e, 0x36, 0x64, 0x6d, 0x3e, 0x36, 0x56, 0x39, 0x3f, 0xf1, 0xc4, 0x92, 0x3e, 0x6f, 0x30, 0xb7, 0x3f, 0xa4, 0x6d, 0xaf, 0x3f, 0xbc, 0x08, 0x90, 0x3c, 0x36, 0x16, 0xaf, 0x3f, 0x8b, 0xde, 0xfe, 0x3e, 0xb3, 0xa5, 0x9d, 0x3e, 0x5a, 0x77, 0x0c, 0x3f, 0x57, 0x30, 0x64, 0xbe, 0x80, 0x70, 0x74, 0x3d, 0x06, 0x20, 0x8b, 0x3f, 0x2d, 0xc7, 0x07, 0xbf, 0xbd, 0xcb, 0xeb, 0x3e, 0xf9, 0x2e, 0x8f, 0x40, 0xea, 0x28, 0x97, 0x3f, 0x5b, 0xb6, 0x43, 0x3f, 0x09, 0xce, 0xfe, 0x3e, 0x96, 0x07, 0x81, 0x3f, 0xcc, 0x47, 0x71, 0x3f, 0x9b, 0xd0, 0xc5, 0xbe, 0x1e, 0xfa, 0x51, 0x3f, 0xd5, 0x43, 0x59, 0x40, 0x9a, 0xbb, 0x33, 0x3f, 0xee, 0x9b, 0x8a, 0xbe, 0x37, 0x2e, 0x52, 0x3f, 0x57, 0x4b, 0x72, 0x3e, 0xd8, 0xf3, 0xfb, 0x3e, 0x0c, 0xdc, 0x7f, 0x3f, 0x9e, 0x8f, 0x02, 0x3f, 0x8b, 0xfc, 0x0a, 0xbe, 0x93, 0x57, 0xa9, 0x3f, 0x7b, 0xb6, 0xb6, 0x3e, 0xe1, 0x06, 0x47, 0xbe, 0xaa, 0x44, 0x85, 0xbe, 0x82, 0xa2, 0xdb, 0x3e, 0x9d, 0x66, 0xd8, 0xbd, 0xfd, 0xd7, 0x2c, 0x3f, 0xc4, 0xd1, 0xb8, 0x3f, 0x64, 0x9e, 0x62, 0x3c, 0x27, 0x75, 0x6a, 0xbe, 0x8b, 0x8e, 0xb2, 0x3e, 0x71, 0x93, 0xdf, 0x3d, 0x81, 0xfa, 0x84, 0xc0, 0x73, 0x20, 0xc1, 0x3e, 0xfe, 0x70, 0x19, 0x40, 0xce, 0x3a, 0x6f, 0x3f, 0x54, 0x48, 0x85, 0x3f, 0x90, 0x69, 0x17, 0xbf, 0x38, 0x1f, 0x46, 0x40, 0xb2, 0x44, 0x6c, 0xbe, 0x31, 0xc7, 0xfa, 0x3e, 0x15, 0x1a, 0xd5, 0x3f, 0x7d, 0xdb, 0x22, 0x3f, 0x6d, 0x7b, 0x92, 0xbe, 0x1c, 0x59, 0x33, 0xbf, 0xf6, 0x77, 0x1f, 0x40, 0x07, 0xef, 0x1d, 0xbf, 0x3d, 0xe6, 0xe7, 0xbe, 0xc0, 0x7c, 0x62, 0xbe, 0x4d, 0x24, 0x8e, 0x3e, 0xdc, 0xe1, 0xd4, 0x3e, 0xb9, 0x2e, 0xb3, 0x3e, 0xf1, 0x3d, 0xde, 0x3e, 0x1b, 0xbe, 0x0d, 0xbf, 0x33, 0xa7, 0x17, 0x3e, 0x1d, 0x10, 0x52, 0xc0, 0x34, 0xb7, 0xf7, 0xbd, 0x2b, 0x49, 0x12, 0xc0, 0x24, 0x91, 0x9e, 0xbf, 0xa7, 0x95, 0x4a, 0xbf, 0x5c, 0xdc, 0xb0, 0xbd, 0x0f, 0xb7, 0x00, 0x3e, 0x9e, 0x31, 0x86, 0xbe, 0xfb, 0xa1, 0x02, 0x3f, 0x86, 0xae, 0x27, 0x3e, 0x79, 0x44, 0x82, 0x3f, 0x28, 0xe9, 0x6b, 0xbd, 0x4d, 0xea, 0x55, 0xc0, 0x71, 0xc8, 0xa1, 0xbf, 0xe1, 0x22, 0xd3, 0x3d, 0xcb, 0x41, 0x82, 0xbd, 0x09, 0x3c, 0xf9, 0xbe, 0xb5, 0x0b, 0x51, 0xc0, 0x6e, 0x6c, 0x0b, 0xbf, 0xc9, 0x9e, 0x04, 0xbe, 0x4e, 0x6a, 0x60, 0xc0, 0x05, 0x55, 0xf8, 0xbd, 0x63, 0xdf, 0x1d, 0x3e, 0x5a, 0x98, 0xa5, 0xbf, 0x26, 0x37, 0xb2, 0xbe, 0xe0, 0xc3, 0x27, 0x3e, 0x6e, 0x1f, 0xd9, 0xbe, 0xa6, 0x27, 0x29, 0x3d, 0x72, 0xc8, 0xc3, 0x3c, 0x75, 0xb9, 0x30, 0xc0, 0x62, 0xb0, 0x41, 0xbf, 0xcd, 0x4d, 0x98, 0x3e, 0x1f, 0xc5, 0x38, 0xbf, 0xe1, 0x5e, 0x4a, 0x3e, 0x57, 0x63, 0xa0, 0xbf, 0x41, 0x8f, 0xbe, 0xbe, 0x03, 0x9f, 0x20, 0xbf, 0x98, 0xa9, 0x55, 0xbf, 0xfc, 0x94, 0x41, 0xbe, 0x64, 0xc6, 0x97, 0x3d, 0x84, 0x4b, 0xf8, 0xbf, 0xde, 0x08, 0x22, 0x3f, 0x9a, 0x72, 0x0b, 0x40, 0x0c, 0x38, 0xab, 0x3e, 0x1f, 0x16, 0x15, 0xbf, 0x03, 0xa2, 0xfc, 0xbe, 0x40, 0xed, 0x12, 0xbf, 0x8b, 0x50, 0x1f, 0xc0, 0x18, 0x7d, 0xaa, 0x3d, 0x0f, 0x5b, 0xe0, 0xbf, 0xd0, 0xc4, 0x14, 0xbf, 0x5f, 0x6b, 0xc7, 0xbd, 0x65, 0xff, 0xbf, 0xbd, 0xcd, 0xfc, 0xd3, 0xbd, 0x81, 0x71, 0xad, 0x3c, 0x9e, 0x4e, 0xa3, 0xbf, 0x01, 0x49, 0x99, 0x3e, 0x52, 0xba, 0x10, 0xc0, 0x41, 0x6a, 0x32, 0xbf, 0x2c, 0xea, 0x87, 0xc0, 0x64, 0x76, 0x82, 0x3e, 0x19, 0xc2, 0x10, 0xbf, 0x78, 0x01, 0xd1, 0xbe, 0x24, 0x2b, 0x9e, 0xbf, 0x0a, 0xa0, 0x13, 0x3f, 0xe1, 0x41, 0x38, 0xbf, 0x1a, 0xd4, 0x34, 0x3f, 0x7b, 0x49, 0x48, 0x3e, 0x5d, 0x99, 0x0d, 0x3f, 0xf9, 0xb0, 0x70, 0x3f, 0x6c, 0x47, 0x7c, 0xbf, 0x67, 0x7b, 0x1d, 0x3f, 0xef, 0xf4, 0x95, 0x3e, 0x9c, 0x1a, 0x80, 0xbe, 0xb4, 0x41, 0x07, 0x3f, 0x37, 0x31, 0x3c, 0xbf, 0x54, 0x34, 0x23, 0xbd, 0x29, 0x3e, 0x50, 0xbf, 0x6b, 0xbf, 0x71, 0x3e, 0xe4, 0xd6, 0x04, 0xbe, 0xb1, 0xcf, 0x25, 0xbf, 0xd8, 0xc5, 0x0f, 0xc0, 0x73, 0xdf, 0x8f, 0xbf, 0xcb, 0x98, 0x21, 0xbf, 0xe4, 0x4a, 0x8d, 0xbf, 0x2f, 0x44, 0x4c, 0xbf, 0xba, 0x10, 0x13, 0x3d, 0xc5, 0x19, 0x26, 0xbe, 0x5d, 0x1c, 0xd4, 0xbe, 0x5e, 0xb0, 0xc3, 0xbd, 0x9a, 0x11, 0x57, 0xbe, 0x06, 0x34, 0x14, 0xbe, 0xc6, 0xbe, 0x05, 0xbf, 0x23, 0x45, 0x2d, 0xbf, 0xcb, 0x10, 0xec, 0x3d, 0x10, 0x98, 0x36, 0xbf, 0xe1, 0xb8, 0xf7, 0x3d, 0x5d, 0x24, 0x31, 0xbe, 0x45, 0xd5, 0x4a, 0xbe, 0x61, 0xa5, 0x01, 0xbf, 0xfe, 0x8d, 0xb3, 0xbf, 0xd9, 0x5d, 0x0f, 0xbe, 0xeb, 0xba, 0x07, 0xbe, 0x7b, 0x8b, 0xbf, 0xbd, 0x4e, 0x90, 0x1c, 0x3e, 0x73, 0x11, 0xa5, 0x3e, 0xac, 0x4a, 0xf8, 0x3e, 0x2e, 0xe6, 0x53, 0x3f, 0x73, 0x71, 0xdf, 0xbd, 0x16, 0xb7, 0x05, 0x3e, 0xe2, 0x42, 0x17, 0xbe, 0xcb, 0x60, 0x14, 0xc1, 0x5a, 0x40, 0x0e, 0x3e, 0xcb, 0x2f, 0xf5, 0xbf, 0xc8, 0xaa, 0xf9, 0x3e, 0xb8, 0x53, 0x42, 0xbf, 0x12, 0xcd, 0x6b, 0x3e, 0xb9, 0xed, 0x0b, 0x3f, 0x34, 0xd0, 0xf9, 0xbe, 0x27, 0x39, 0x89, 0x3e, 0x18, 0xd3, 0x18, 0x3e, 0xdf, 0xf4, 0x11, 0x3e, 0xe8, 0xfd, 0x1d, 0xbf, 0xe1, 0xd8, 0x19, 0xbf, 0xc8, 0xba, 0xc3, 0x3d, 0x3f, 0x53, 0xeb, 0x3e, 0xc4, 0x24, 0x88, 0xbf, 0x50, 0xd3, 0x38, 0x3f, 0xa1, 0x58, 0xef, 0x3f, 0x49, 0x80, 0xc7, 0x3e, 0x32, 0xb7, 0x67, 0xbe, 0xcd, 0x4c, 0x6c, 0xbf, 0x6d, 0xec, 0x60, 0x3e, 0xa6, 0x83, 0xc8, 0x3e, 0xf2, 0x89, 0x9c, 0x3f, 0xe9, 0x84, 0xb5, 0x3e, 0xfd, 0xf7, 0xad, 0x3f, 0x49, 0x5b, 0x17, 0x3f, 0x20, 0x84, 0x11, 0xbf, 0xed, 0x97, 0x88, 0xbf, 0x49, 0xa5, 0x91, 0x40, 0xa5, 0xb9, 0x11, 0x40, 0xfc, 0xd8, 0x4c, 0xbf, 0x87, 0xac, 0xc1, 0xbe, 0x80, 0x31, 0xbb, 0x3f, 0xc2, 0x22, 0x07, 0x40, 0x48, 0x6a, 0xed, 0x3e, 0x9a, 0x34, 0x87, 0x3e, 0x3d, 0x2e, 0x0a, 0x40, 0x98, 0xb1, 0x92, 0xbf, 0xaa, 0xd5, 0xa4, 0x3c, 0xc2, 0x64, 0xd5, 0x3e, 0xec, 0x1d, 0x98, 0x3d, 0x56, 0x1d, 0xbe, 0x3f, 0xd8, 0x2c, 0x9d, 0xbe, 0x49, 0x70, 0xc4, 0xbe, 0xbc, 0xec, 0x52, 0xbf, 0xe1, 0x23, 0x6b, 0x3f, 0x98, 0x18, 0x07, 0x3d, 0xf8, 0xeb, 0xc6, 0x3e, 0x62, 0xb1, 0x02, 0x3f, 0x7b, 0xed, 0xd9, 0x3e, 0x81, 0x03, 0x7b, 0x3f, 0x21, 0x52, 0x28, 0x3f, 0xe5, 0xa6, 0xce, 0x3f, 0x1a, 0x5a, 0x76, 0xbf, 0xb3, 0x4f, 0x0f, 0xbe, 0x23, 0x0d, 0xb7, 0x3e, 0xc4, 0x4f, 0x0a, 0x3e, 0xd9, 0xee, 0xca, 0xbf, 0x5b, 0x96, 0xcf, 0x3c, 0x3c, 0x20, 0xd2, 0x3e, 0x02, 0x89, 0x03, 0x3f, 0xa2, 0x07, 0xd7, 0xbd, 0x9d, 0xaa, 0x14, 0x3f, 0xd8, 0xda, 0xc4, 0x3f, 0x02, 0x4c, 0x18, 0x3f, 0x14, 0x91, 0xbe, 0x3f, 0x17, 0xf8, 0xc0, 0x3f, 0x0e, 0x39, 0x25, 0x3f, 0x43, 0xac, 0xbd, 0xbe, 0x8b, 0xa2, 0xae, 0xbf, 0xe4, 0xfa, 0x1a, 0x3f, 0xa0, 0x70, 0x22, 0x3e, 0xc7, 0xf7, 0xa2, 0xbf, 0x8e, 0x74, 0xe7, 0x3e, 0x93, 0xd0, 0xe3, 0x3b, 0xbe, 0xd9, 0x2b, 0xc0, 0xc1, 0x20, 0x8f, 0xbd, 0x69, 0x7c, 0xe6, 0x3e, 0x1e, 0x5d, 0x01, 0xbe, 0x6a, 0x38, 0xb9, 0x3e, 0x6b, 0x7f, 0xd3, 0x3e, 0xda, 0x17, 0x8c, 0x3e, 0x4f, 0x44, 0x7f, 0xbe, 0x34, 0xb6, 0x57, 0xbe, 0x04, 0xa0, 0x8d, 0xbe, 0x1d, 0x3f, 0xbd, 0xbf, 0x28, 0xca, 0xd6, 0x3e, 0xd6, 0xc0, 0x1a, 0x3e, 0x59, 0xfe, 0xc5, 0xbf, 0x38, 0xd2, 0xdb, 0xbe, 0xf0, 0xcf, 0x16, 0xbf, 0xaf, 0x62, 0x8c, 0xbe, 0x17, 0x3a, 0x9d, 0x3f, 0x38, 0x08, 0xd8, 0xbe, 0x40, 0xf2, 0xa4, 0x3e, 0xf3, 0xad, 0x96, 0xbd, 0xa4, 0x9c, 0x8a, 0x3e, 0x5b, 0xb7, 0x96, 0x40, 0x69, 0xa5, 0x2e, 0x3e, 0x32, 0x02, 0xbf, 0x3e, 0x96, 0xbb, 0x39, 0x3e, 0xf5, 0xd4, 0x99, 0x3e, 0x45, 0x7c, 0xdf, 0x3e, 0x36, 0xfa, 0x45, 0xba, 0x7e, 0x05, 0x68, 0x3e, 0xc7, 0xdd, 0x6a, 0x3f, 0x51, 0x85, 0xe5, 0x3e, 0x28, 0xd6, 0x85, 0x3d, 0x79, 0x56, 0xe7, 0x3e, 0xe4, 0x6f, 0xb3, 0x3f, 0x9a, 0xbf, 0x09, 0x3f, 0x80, 0x70, 0x03, 0xbe, 0x35, 0x09, 0xa6, 0xbf, 0x38, 0x2e, 0xa4, 0x3e, 0x09, 0x67, 0xcf, 0x3d, 0xd6, 0x90, 0x36, 0x3e, 0x0b, 0x2d, 0xd7, 0x3f, 0xb3, 0xe0, 0xae, 0xbe, 0xd8, 0xf1, 0xa5, 0x3d, 0x57, 0xf8, 0x83, 0xbb, 0x70, 0xfb, 0x0c, 0xbf, 0x82, 0xad, 0x7c, 0x40, 0x73, 0x82, 0x49, 0xbf, 0x46, 0x01, 0x18, 0xbf, 0xac, 0x3a, 0x74, 0x3e, 0x1f, 0xf4, 0xf4, 0x3f, 0x84, 0x9b, 0x85, 0xbf, 0x00, 0xee, 0x8a, 0xc0, 0xdb, 0x6f, 0x9e, 0xbf, 0xea, 0xc4, 0xaf, 0x3f, 0x1e, 0x3f, 0x26, 0x3f, 0xe9, 0xc3, 0xd2, 0xbe, 0x5a, 0xe0, 0xdc, 0x3d, 0x84, 0xeb, 0x7a, 0xbe, 0x6b, 0xdb, 0xdd, 0xbf, 0x89, 0x62, 0xf6, 0x3e, 0x40, 0x66, 0x3a, 0xbf, 0x12, 0xc3, 0x18, 0xbe, 0x9f, 0xda, 0x48, 0x3e, 0x91, 0xba, 0x19, 0xbd, 0xb5, 0xd4, 0xdc, 0xbf, 0x76, 0x21, 0x08, 0xbe, 0xbb, 0x5d, 0x3c, 0xbb, 0x8b, 0x5d, 0x63, 0x3d, 0xb0, 0x00, 0x27, 0xbd, 0x61, 0x74, 0x3f, 0x3f, 0x3b, 0xa3, 0x10, 0x3e, 0x07, 0x9a, 0xcd, 0x3e, 0xf4, 0xe0, 0x2d, 0x3f, 0xaa, 0xf5, 0x21, 0xc0, 0xac, 0x62, 0x1e, 0x3e, 0x79, 0x6d, 0x4e, 0x3d, 0xcf, 0x80, 0x8f, 0xbf, 0xde, 0xe2, 0xe8, 0xbe, 0xe2, 0xf2, 0x37, 0xc0, 0xbb, 0x83, 0x94, 0xbf, 0x98, 0x5b, 0xb4, 0x3d, 0x58, 0xe6, 0x09, 0x3f, 0xff, 0x1c, 0xd1, 0xbe, 0x4b, 0x5d, 0x03, 0x3e, 0x61, 0x27, 0x18, 0x3f, 0x8e, 0x31, 0x5c, 0x3f, 0x49, 0xaf, 0x2d, 0xbe, 0xc2, 0x48, 0xc6, 0xba, 0xa7, 0x57, 0xc6, 0x3e, 0xb8, 0x77, 0xb4, 0xbe, 0x00, 0x49, 0x5e, 0xbf, 0x60, 0xf1, 0x78, 0x3d, 0x3b, 0x2b, 0xa9, 0x3e, 0xf2, 0x30, 0x7a, 0x3f, 0x77, 0x12, 0xaf, 0xbd, 0xf3, 0xa2, 0x91, 0x3d, 0xa1, 0xfe, 0x04, 0xbe, 0x45, 0xc6, 0x60, 0x3f, 0x4a, 0xcf, 0xc8, 0x3e, 0x10, 0x03, 0xd3, 0xbe, 0x9b, 0xa2, 0x9e, 0xbf, 0xb7, 0x9c, 0x72, 0x3d, 0xda, 0xfd, 0x4f, 0xbf, 0x75, 0xa2, 0x3f, 0xbf, 0x2b, 0x0d, 0xa0, 0x3e, 0xb7, 0x41, 0xf9, 0x3e, 0xda, 0x99, 0x10, 0x3c, 0x8a, 0x5c, 0x25, 0xbf, 0x33, 0xb8, 0x49, 0x3e, 0x2b, 0xa8, 0x28, 0xbf, 0xee, 0x30, 0x17, 0xbf, 0x22, 0xed, 0xdd, 0x3e, 0x5c, 0xd0, 0x9b, 0x3d, 0xb0, 0xb7, 0xe4, 0xbf, 0x33, 0xb8, 0x8f, 0xbf, 0x74, 0xd5, 0xcc, 0xbe, 0x05, 0xea, 0x6e, 0xbf, 0xa6, 0xcf, 0x00, 0xbf, 0x6d, 0xf8, 0xc4, 0x3e, 0x59, 0x2e, 0x86, 0x3e, 0xdb, 0xf3, 0x03, 0xbe, 0x9f, 0x46, 0xda, 0xbd, 0x1b, 0xfb, 0x81, 0xc0, 0x53, 0xb9, 0x80, 0xbc, 0x2a, 0x7e, 0x94, 0xbe, 0xfd, 0x16, 0xdc, 0x3e, 0xcb, 0x6c, 0x08, 0xbe, 0x08, 0x37, 0x6b, 0x3f, 0x3c, 0xdf, 0xee, 0x3e, 0xd1, 0x47, 0x5a, 0xbe, 0x8a, 0x8b, 0x95, 0xbe, 0x74, 0xa9, 0xc0, 0x3c, 0x9d, 0x42, 0x8a, 0x3d, 0x5b, 0xf9, 0xe1, 0xbd, 0x5d, 0xfc, 0x94, 0x3f, 0x01, 0x60, 0xc4, 0x3e, 0x2e, 0xed, 0x08, 0xbf, 0xd5, 0xaf, 0x20, 0x40, 0xd1, 0x8d, 0x98, 0xbe, 0x56, 0x05, 0xd5, 0x3d, 0x53, 0xc0, 0x2d, 0xbf, 0xf5, 0x12, 0x14, 0xbf, 0xb6, 0x93, 0xa3, 0x3f, 0x86, 0xd1, 0x02, 0xbf, 0x57, 0x26, 0x24, 0x3f, 0x6e, 0x66, 0x0b, 0xbf, 0x80, 0x08, 0xbc, 0xbf, 0xe0, 0x4c, 0x97, 0x3e, 0x0f, 0x03, 0xf5, 0xbf, 0xdf, 0x3e, 0x02, 0xc1, 0x64, 0x21, 0x1c, 0x3e, 0xcd, 0x0e, 0xaf, 0xbe, 0x6d, 0x25, 0xca, 0x3f, 0x8a, 0xb1, 0x8f, 0xbe, 0x26, 0x77, 0xe6, 0xbd, 0xa1, 0xb6, 0x4c, 0xbe, 0xf6, 0xcd, 0xa2, 0xbf, 0x56, 0xe8, 0xa8, 0xbf, 0x07, 0xb0, 0xc4, 0x3d, 0xe9, 0x96, 0x75, 0xbf, 0xc4, 0xcb, 0xc9, 0xbf, 0x85, 0xfb, 0xb1, 0x3f, 0xdb, 0x5b, 0x1c, 0x3f, 0xaa, 0x90, 0x06, 0x3f, 0x58, 0x15, 0x87, 0x3e, 0x9b, 0xb9, 0x96, 0x3d, 0x1b, 0x90, 0xba, 0x3e, 0x9b, 0x74, 0x3f, 0x3f, 0xed, 0x4c, 0x13, 0xc0, 0xae, 0x8e, 0x97, 0x3e, 0xbf, 0x1e, 0x03, 0x3f, 0x92, 0xcb, 0x76, 0xbe, 0x2f, 0x12, 0x5f, 0x3f, 0x53, 0x7b, 0x9f, 0xc0, 0x2d, 0x79, 0x7b, 0xbf, 0x72, 0xa7, 0x86, 0xbf, 0x21, 0x5f, 0x58, 0x3d, 0x09, 0xa0, 0x26, 0xc0, 0x10, 0x17, 0x24, 0x3e, 0x09, 0x3b, 0x59, 0x40, 0x3f, 0x4f, 0x81, 0xbd, 0x8f, 0x45, 0xcf, 0x3e, 0x38, 0xf0, 0x04, 0x3f, 0xe6, 0x59, 0x96, 0xbf, 0x40, 0x02, 0xb2, 0xbe, 0x1a, 0x76, 0xee, 0x3c, 0xb7, 0xc2, 0xae, 0xc0, 0x1d, 0xe5, 0xcc, 0x3e, 0x4c, 0xfa, 0x5e, 0xbe, 0x0a, 0x73, 0xad, 0x3f, 0xc4, 0x82, 0x5a, 0xbe, 0xa5, 0xd7, 0xad, 0x3f, 0x7d, 0x21, 0xbf, 0x3e, 0xb8, 0xc5, 0x3b, 0x3e, 0xed, 0x0b, 0x7b, 0xbd, 0x0e, 0xd4, 0xed, 0xbd, 0xac, 0x4e, 0xb6, 0x3e, 0xaa, 0xf3, 0x47, 0x3e, 0x85, 0x6d, 0xee, 0xbd, 0xcf, 0xc0, 0xcf, 0x3e, 0xaf, 0x33, 0x2c, 0xbf, 0xff, 0x50, 0xb9, 0x3f, 0x1c, 0x2e, 0x28, 0xbc, 0x11, 0x20, 0x33, 0x3d, 0x5e, 0x1e, 0xc1, 0xbf, 0x7c, 0x14, 0x22, 0xbf, 0x78, 0x13, 0x4b, 0x3f, 0xf6, 0xe9, 0x4d, 0x3f, 0x1b, 0xeb, 0xbc, 0xbf, 0xcf, 0x17, 0xfc, 0x3f, 0x79, 0x6b, 0x11, 0xc0, 0x0e, 0x92, 0x36, 0xbb, 0xc9, 0xf2, 0x28, 0xc0, 0xfe, 0xb8, 0x27, 0xc1, 0xc1, 0xe2, 0x9f, 0x3c, 0x24, 0x6f, 0x37, 0xbf, 0x82, 0x77, 0x44, 0x3f, 0x6a, 0xc5, 0x58, 0x3e, 0x86, 0xe9, 0x25, 0xbe, 0xe0, 0xea, 0x91, 0x3e, 0x61, 0xee, 0x59, 0xbf, 0x89, 0xc6, 0xee, 0xbf, 0xab, 0x72, 0x5c, 0xbe, 0x49, 0xf8, 0x9e, 0xbf, 0x1b, 0xc8, 0x8a, 0xbf, 0xe5, 0xfb, 0xc6, 0x3f, 0xa4, 0xe1, 0x41, 0x3d, 0xe3, 0x66, 0x39, 0x3f, 0xdb, 0x3c, 0xdb, 0xbc, 0xea, 0xd4, 0x4d, 0x3e, 0xbe, 0x74, 0xb2, 0x3e, 0xc8, 0x2d, 0xd3, 0x3e, 0x9c, 0x17, 0x59, 0xc0, 0x0b, 0xd2, 0xcc, 0xbc, 0x10, 0x18, 0x55, 0x3e, 0x37, 0x3b, 0xd5, 0x3d, 0xe2, 0xb1, 0x6b, 0x3e, 0xf3, 0x43, 0x6b, 0xc0, 0xdb, 0x37, 0xa4, 0x3e, 0x8f, 0xbf, 0x40, 0xbf, 0x7d, 0xd8, 0x27, 0xbf, 0x6f, 0xa6, 0x9a, 0xc0, 0x32, 0x49, 0x72, 0xbc, 0xe0, 0xf4, 0x03, 0x40, 0xef, 0x39, 0xe3, 0x3d, 0x80, 0x74, 0xd5, 0x3f, 0x84, 0x38, 0xa5, 0x3e, 0x91, 0x9d, 0x9c, 0xbe, 0xda, 0xde, 0xac, 0xbc, 0xa1, 0x5c, 0xf3, 0x3e, 0x60, 0x06, 0x7e, 0x40, 0x66, 0x83, 0xe3, 0x3e, 0x52, 0xa8, 0x2d, 0x3f, 0xe0, 0x3d, 0x7c, 0xc0, 0xd0, 0x01, 0x39, 0xbf, 0xc8, 0x33, 0xa1, 0xbf, 0xb4, 0x57, 0x38, 0xbe, 0x0b, 0x60, 0xc8, 0xbe, 0x15, 0xf7, 0x8f, 0xbf, 0x95, 0xc5, 0xbd, 0xbf, 0x5d, 0xc2, 0xb3, 0xbe, 0xc9, 0x51, 0x6e, 0xbe, 0x9a, 0xea, 0xc4, 0xbe, 0x72, 0xb2, 0x74, 0x3e, 0xfe, 0xf7, 0xce, 0x3e, 0x8f, 0x96, 0xf2, 0x3d, 0x93, 0x71, 0x0b, 0x3e, 0xff, 0xd7, 0x80, 0x3e, 0xbc, 0xb7, 0x14, 0x3f, 0xa4, 0xc4, 0xfa, 0x3d, 0x7d, 0x9e, 0x8a, 0xbf, 0xd0, 0x47, 0x93, 0xbf, 0x91, 0x13, 0x80, 0x3f, 0x68, 0x45, 0x56, 0x3e, 0x74, 0x3e, 0x0b, 0x3f, 0x47, 0x62, 0x52, 0xbf, 0xbf, 0xe3, 0xbf, 0x3f, 0xe9, 0x4a, 0x4e, 0x40, 0xf7, 0x43, 0x1c, 0xbf, 0x35, 0xa1, 0x5f, 0x3f, 0x27, 0xa4, 0xe0, 0x3e, 0xce, 0x2f, 0x57, 0xbf, 0x42, 0x07, 0x28, 0xbf, 0xef, 0x63, 0x04, 0x3f, 0xd0, 0xf6, 0xed, 0x3c, 0x0d, 0xab, 0x1c, 0x3f, 0x81, 0xd3, 0x02, 0xbf, 0x2a, 0xe4, 0xfa, 0x3c, 0xcc, 0x45, 0x6d, 0x3e, 0x38, 0xdd, 0x08, 0xbf, 0x39, 0x5c, 0x55, 0xbf, 0xe9, 0x2d, 0xff, 0xbe, 0xd5, 0xeb, 0xae, 0x3e, 0x2e, 0x4b, 0x33, 0xbf, 0xf2, 0xea, 0x80, 0x3e, 0xd1, 0xdb, 0xd5, 0x3e, 0x1c, 0xf1, 0x96, 0x3e, 0x2f, 0x7f, 0xf1, 0xbe, 0xba, 0x82, 0xa4, 0xbf, 0xa7, 0x2f, 0xd2, 0xbd, 0x3d, 0x4e, 0xa3, 0x3b, 0x3e, 0x94, 0x48, 0xc0, 0xa8, 0xe1, 0x1a, 0x3f, 0x1f, 0x28, 0xd1, 0xbf, 0x2e, 0xd1, 0x6b, 0xbe, 0xb5, 0x96, 0x4c, 0x3f, 0x5b, 0x7f, 0xa2, 0x3e, 0x84, 0x64, 0x8e, 0xbe, 0xa1, 0xf8, 0xac, 0x3e, 0x7d, 0x31, 0x32, 0xc0, 0x7f, 0x3b, 0x38, 0x3e, 0xf9, 0xe4, 0x90, 0x3e, 0x4a, 0xe0, 0x9a, 0x3d, 0xa9, 0xcd, 0x02, 0x3e, 0x6f, 0xaf, 0x50, 0x3e, 0x66, 0x6a, 0x44, 0x3f, 0x8e, 0x24, 0x92, 0x3e, 0xdd, 0x61, 0x19, 0x3f, 0x70, 0xb4, 0x2d, 0xbc, 0x16, 0xd0, 0xcc, 0x3f, 0xd5, 0xf5, 0x24, 0xbe, 0xb9, 0x8f, 0x13, 0x3d, 0x39, 0x13, 0xa2, 0xbf, 0xa6, 0xf4, 0x83, 0xbe, 0x01, 0xd8, 0x77, 0xbf, 0x53, 0x6c, 0xd1, 0x3d, 0x0a, 0xce, 0xc8, 0xbf, 0xb3, 0xa6, 0x4d, 0x3d, 0xdc, 0x3b, 0x5f, 0xbf, 0xc3, 0x09, 0xa0, 0x3f, 0xc0, 0x2e, 0x33, 0x3f, 0xfb, 0x46, 0xa6, 0xbe, 0x97, 0x2c, 0x96, 0x3f, 0x72, 0x0d, 0x1e, 0x3c, 0x79, 0x9f, 0x06, 0xbf, 0x2d, 0x2f, 0xde, 0xbd, 0x05, 0x6f, 0xec, 0x3d, 0x59, 0xac, 0xad, 0x3e, 0x5b, 0x75, 0x87, 0x3d, 0x08, 0x57, 0x5b, 0xbf, 0x42, 0x8d, 0x7f, 0x3f, 0x20, 0xb4, 0x3d, 0x40, 0xab, 0xdf, 0x19, 0xc0, 0xa5, 0xdd, 0x98, 0x3d, 0x43, 0x12, 0xa7, 0xbe, 0xfa, 0xce, 0xdf, 0xbe, 0x5c, 0xa3, 0x50, 0xbf, 0x02, 0xa6, 0x25, 0xbe, 0xd0, 0x0a, 0x93, 0x3d, 0x5a, 0x34, 0x08, 0xbf, 0x75, 0x5f, 0x49, 0xbe, 0xb4, 0x3f, 0x20, 0x3d, 0x13, 0x47, 0xfb, 0x3e, 0x68, 0x18, 0x3a, 0xbf, 0x53, 0xe5, 0x26, 0xbf, 0x86, 0x85, 0xd6, 0x3d, 0xcc, 0x26, 0xd3, 0x3e, 0x9c, 0x6b, 0xb2, 0xbf, 0xcd, 0xa4, 0x73, 0xbe, 0xaf, 0x93, 0xd4, 0xbe, 0xa4, 0x38, 0x66, 0x3e, 0xc3, 0x6f, 0xa4, 0xbf, 0x0c, 0x78, 0xdb, 0xbf, 0x5e, 0x96, 0xaa, 0xbe, 0xd5, 0xe3, 0xee, 0xbe, 0x10, 0xb7, 0xc0, 0xc0, 0xdf, 0xbe, 0xe8, 0x3f, 0x1e, 0xea, 0xc3, 0xbf, 0xd6, 0x41, 0x33, 0xbd, 0xbd, 0xfd, 0x66, 0xbf, 0x25, 0xff, 0xbb, 0x3c, 0x4e, 0x43, 0x08, 0x40, 0x37, 0x0a, 0x6a, 0x3f, 0x5d, 0x4b, 0x1d, 0xc0, 0x31, 0x5f, 0xc5, 0xbd, 0x1b, 0x2a, 0x88, 0x3e, 0xa3, 0x62, 0x97, 0xbe, 0x2a, 0x51, 0x84, 0xbe, 0xb1, 0x05, 0xdd, 0x3f, 0xb8, 0xdd, 0x85, 0x3f, 0xdf, 0x5f, 0xc7, 0xbd, 0xaa, 0x8e, 0x8e, 0x3f, 0xb0, 0x3a, 0xe1, 0x3d, 0x2d, 0x5b, 0xe0, 0x3f, 0x87, 0x92, 0xbd, 0xbe, 0x55, 0x13, 0xeb, 0x3e, 0x15, 0x5c, 0x59, 0xbf, 0x99, 0xe8, 0x1c, 0x3f, 0x78, 0xd7, 0xac, 0xbe, 0xa3, 0xf5, 0xb0, 0x3e, 0x61, 0xbf, 0x04, 0x3e, 0xaf, 0x78, 0xcb, 0x3e, 0x46, 0x62, 0xaf, 0xbf, 0xa0, 0x93, 0x32, 0xbf, 0xab, 0x78, 0xa1, 0x3e, 0x4d, 0xfb, 0x22, 0xbf, 0x09, 0xdc, 0x47, 0x3f, 0x0f, 0x4d, 0x95, 0x3f, 0x7d, 0x4a, 0xb4, 0x3a, 0x90, 0x90, 0x67, 0x3f, 0xd7, 0x61, 0xad, 0x3e, 0xc6, 0x21, 0x86, 0xbf, 0x5b, 0x92, 0x96, 0x3e, 0x71, 0xc2, 0x01, 0xbf, 0x41, 0x9a, 0x5f, 0xbf, 0xc4, 0x6f, 0x28, 0x40, 0x7a, 0xcf, 0x24, 0xc0, 0x29, 0x61, 0x05, 0x3f, 0x70, 0x19, 0xd6, 0x3e, 0x8c, 0xab, 0xc3, 0x3e, 0xbe, 0x91, 0xd6, 0xbe, 0x1e, 0x86, 0x6f, 0xbf, 0x4d, 0x18, 0xd4, 0x3d, 0x27, 0xda, 0x25, 0xbf, 0xab, 0xad, 0x8b, 0x3e, 0x88, 0x90, 0xc4, 0x3e, 0x17, 0xee, 0x4e, 0x3d, 0xd8, 0x89, 0xa5, 0x3e, 0x7c, 0x8e, 0x92, 0xbf, 0x4c, 0x38, 0xdb, 0x3d, 0xd6, 0x91, 0x92, 0x3e, 0x3c, 0xd1, 0x2f, 0xbf, 0x7c, 0xf8, 0x60, 0xbe, 0x7d, 0xf2, 0xa7, 0xbf, 0x2f, 0xcf, 0x0d, 0x3f, 0xc5, 0x7f, 0x1b, 0x3f, 0xe2, 0xad, 0xb8, 0xbe, 0x74, 0xe0, 0xa6, 0x3e, 0x45, 0x25, 0x00, 0x3f, 0xe9, 0xf3, 0x75, 0xc0, 0x59, 0x31, 0xa3, 0x3f, 0x42, 0xa4, 0xae, 0x3f, 0xbd, 0x15, 0xf9, 0x3d, 0x49, 0xc5, 0x04, 0xbf, 0x89, 0x8e, 0xfc, 0xbe, 0x78, 0x3a, 0xa1, 0x3e, 0x68, 0xe5, 0xea, 0x3e, 0xfe, 0x3e, 0x36, 0xc0, 0x17, 0x27, 0x05, 0xbf, 0xa5, 0x74, 0x2f, 0x3e, 0x57, 0x8d, 0x1b, 0x3e, 0x7c, 0xf1, 0xc5, 0x3d, 0xe7, 0x28, 0x45, 0xc0, 0x7b, 0x38, 0x11, 0xbf, 0x21, 0x3f, 0x4e, 0xbf, 0x57, 0x2b, 0xbd, 0xbf, 0x5e, 0x0f, 0xf6, 0x3e, 0x40, 0x62, 0xef, 0xbd, 0xff, 0xfc, 0xd4, 0xbe, 0x2c, 0x2c, 0xb2, 0xbf, 0x09, 0xcd, 0x1c, 0x3f, 0x74, 0x48, 0x80, 0xbf, 0x45, 0xc0, 0x3d, 0xbf, 0xb6, 0x51, 0xe9, 0xbe, 0x0f, 0x6b, 0x8f, 0xbf, 0x56, 0x45, 0xcf, 0x3c, 0x14, 0xd4, 0x84, 0x3f, 0x57, 0x73, 0x2f, 0xbe, 0x5a, 0xd7, 0xb8, 0x3e, 0x47, 0xee, 0x35, 0xbf, 0x73, 0x59, 0x33, 0xbe, 0xe2, 0x7a, 0x90, 0xbf, 0xb8, 0x88, 0x96, 0x3f, 0x34, 0x09, 0xc3, 0x3f, 0xbd, 0xea, 0xd5, 0xbe, 0xd4, 0x4f, 0x17, 0xbf, 0x7a, 0x8d, 0x16, 0x3f, 0x25, 0xc7, 0x30, 0x3c, 0x29, 0x13, 0x4b, 0xbf, 0xe3, 0x3b, 0x90, 0xc0, 0x5e, 0xd6, 0x10, 0xbf, 0x98, 0xcc, 0x85, 0x3d, 0xc7, 0xa0, 0x0f, 0x40, 0x68, 0xbe, 0xc5, 0x3e, 0x8c, 0x2e, 0xd7, 0xbe, 0x2e, 0xd4, 0x76, 0xbf, 0xf5, 0x8e, 0xf5, 0x3e, 0xca, 0x2c, 0x09, 0xbf, 0x52, 0x9a, 0xe1, 0x3e, 0x7c, 0x94, 0xd3, 0x3d, 0x3e, 0x02, 0x32, 0xbf, 0x3d, 0xe3, 0x0f, 0xbe, 0x55, 0x50, 0x90, 0xbe, 0xc7, 0xea, 0xb2, 0x3e, 0x0a, 0x11, 0x8a, 0xbe, 0x4e, 0xaf, 0x00, 0x3f, 0xda, 0x53, 0x15, 0xbf, 0xf3, 0xf7, 0x84, 0xbf, 0xb0, 0x50, 0x5d, 0x3d, 0x4b, 0x10, 0x26, 0x3c, 0xc6, 0xe5, 0xa1, 0x3e, 0x54, 0xd7, 0x39, 0x3f, 0xfb, 0x38, 0xa6, 0xbe, 0xad, 0x71, 0x06, 0x3f, 0x41, 0xdc, 0x15, 0xbe, 0x13, 0xff, 0x81, 0xbf, 0x22, 0x3f, 0xb4, 0xbf, 0x5c, 0xfa, 0x31, 0xc0, 0x6e, 0x7c, 0x13, 0xbe, 0xf6, 0x08, 0x4e, 0x3f, 0xd7, 0x93, 0x7b, 0xbf, 0xee, 0x30, 0xd7, 0xbf, 0xcc, 0x78, 0xa0, 0xbf, 0x53, 0x4a, 0xab, 0xbe, 0x9a, 0x38, 0x2e, 0x3c, 0x37, 0x58, 0x3c, 0x3f, 0x75, 0x90, 0x40, 0x3e, 0xd9, 0x00, 0x6e, 0x3f, 0x35, 0x79, 0xfa, 0x3d, 0x2e, 0xa8, 0xa7, 0xbf, 0xe9, 0x83, 0x13, 0xbf, 0x50, 0xd1, 0xb7, 0xbf, 0x41, 0x99, 0x89, 0xbc, 0x07, 0xf2, 0x00, 0x3f, 0xd4, 0x9d, 0x63, 0xbf, 0xfa, 0x6e, 0x94, 0x3e, 0x88, 0x1c, 0x8c, 0x3f, 0x4e, 0xea, 0xe8, 0xbe, 0x86, 0x5f, 0x2a, 0x3f, 0x18, 0xcc, 0xf8, 0x3e, 0xf5, 0x74, 0x07, 0x3d, 0x99, 0x31, 0x72, 0x3f, 0x4f, 0xa3, 0x1f, 0x3e, 0xf8, 0xe5, 0x2f, 0x3f, 0xb4, 0x9c, 0x0c, 0xbf, 0xf1, 0xdc, 0xea, 0x3e, 0x43, 0x79, 0x57, 0xbe, 0x6e, 0xfd, 0xa1, 0xbe, 0xf2, 0xc4, 0xb7, 0x3f, 0xdf, 0x32, 0x01, 0x40, 0x79, 0xd6, 0xd4, 0xbe, 0x95, 0x3a, 0x02, 0xbe, 0x5a, 0x71, 0xe2, 0x3f, 0xea, 0x4a, 0x13, 0x40, 0xc1, 0xe7, 0xe6, 0x3e, 0x9b, 0xc7, 0x0b, 0x3f, 0xff, 0xd4, 0x06, 0x40, 0x99, 0x64, 0x8d, 0xbf, 0xad, 0x91, 0x86, 0x3f, 0xce, 0x3a, 0x3b, 0x3f, 0x3f, 0x1a, 0xd7, 0xbe, 0x16, 0xc8, 0x27, 0x3f, 0x06, 0x16, 0x11, 0xbf, 0x3c, 0x7a, 0x5e, 0x3d, 0x51, 0xea, 0x09, 0x3f, 0x3f, 0x9d, 0x9b, 0x3f, 0x96, 0x0f, 0x09, 0xbf, 0x41, 0xea, 0xd0, 0xbe, 0xfc, 0xe7, 0x0d, 0x3f, 0x05, 0x6f, 0xcd, 0xbe, 0xe4, 0x9d, 0x27, 0x3f, 0x0c, 0xec, 0x58, 0x3f, 0xb6, 0xfb, 0xba, 0x3e, 0xc6, 0xee, 0x8d, 0xbf, 0x69, 0xeb, 0x83, 0xbe, 0x78, 0x95, 0x5c, 0xbf, 0x82, 0x49, 0xcd, 0x3d, 0x17, 0x79, 0x12, 0xc0, 0x0b, 0x16, 0xc8, 0x3d, 0x23, 0x32, 0x8e, 0xc0, 0xf4, 0x80, 0x77, 0xbe, 0xce, 0x60, 0xde, 0x3e, 0x54, 0x08, 0x43, 0x3e, 0x61, 0x07, 0x5d, 0xc0, 0xc3, 0xa8, 0x9c, 0xbd, 0xba, 0xe7, 0x4d, 0xbf, 0x2c, 0x4d, 0xc0, 0x3d, 0x5a, 0x04, 0x60, 0x3e, 0xa2, 0xf5, 0xff, 0xff, 0x04, 0x00, 0x00, 0x00, 0x00, 0x08, 0x00, 0x00, 0xb9, 0xde, 0x83, 0x3e, 0x70, 0xc1, 0x5e, 0xbe, 0x83, 0x0b, 0xf9, 0x3b, 0x5c, 0xd3, 0x4a, 0x3e, 0x55, 0xfb, 0x01, 0x3e, 0x72, 0xd8, 0x2b, 0x3e, 0xaa, 0x79, 0x9a, 0xbd, 0x29, 0x63, 0x7c, 0x3e, 0x0b, 0xb4, 0x86, 0xbe, 0x2d, 0xfe, 0xca, 0xbe, 0x57, 0x81, 0x03, 0x3d, 0xd7, 0xdc, 0x93, 0x3d, 0x3b, 0x66, 0x78, 0x3e, 0x68, 0x2f, 0x53, 0x3e, 0x56, 0x98, 0xa7, 0x3d, 0x84, 0x0b, 0x87, 0xbe, 0xff, 0x35, 0x26, 0x3e, 0x8f, 0x83, 0x0a, 0x3c, 0xd8, 0x56, 0xfd, 0xb9, 0xe7, 0x38, 0x72, 0xbd, 0xa1, 0xe8, 0x98, 0xbc, 0x6d, 0x18, 0x00, 0x3e, 0xce, 0x6f, 0x38, 0xbf, 0x08, 0x5e, 0x16, 0xbe, 0x42, 0x30, 0xa9, 0xbe, 0x52, 0xbc, 0x88, 0xbd, 0x17, 0x04, 0x19, 0xbe, 0x88, 0x94, 0xdb, 0x3b, 0xf5, 0xfa, 0x88, 0xbe, 0xbb, 0x6f, 0xa4, 0xbe, 0x81, 0xfe, 0x21, 0xbe, 0x7a, 0xd5, 0xcf, 0x3d, 0x5b, 0x0d, 0xd3, 0xbe, 0x8c, 0xdb, 0xcc, 0xbe, 0x77, 0x1e, 0x15, 0x3d, 0xd6, 0xe3, 0x69, 0xbb, 0x18, 0x00, 0x54, 0xbe, 0x1d, 0xc8, 0x33, 0x3e, 0x4f, 0x97, 0xd8, 0x3d, 0x6e, 0xcc, 0xc7, 0x3d, 0x6e, 0xbb, 0xe4, 0xbd, 0x8d, 0x5e, 0x27, 0x3f, 0xc8, 0xeb, 0x56, 0x3c, 0x3c, 0x6a, 0xd0, 0xbd, 0xaa, 0x62, 0xc0, 0xbd, 0xc1, 0x62, 0xdc, 0x3d, 0x2e, 0xd3, 0xe6, 0xbb, 0x83, 0x31, 0x6a, 0x3d, 0xf3, 0x6b, 0xbf, 0x3d, 0xe5, 0x1f, 0x9c, 0x3e, 0xe5, 0x3e, 0x85, 0xbe, 0xe1, 0x2b, 0x08, 0xbc, 0xd8, 0x40, 0x17, 0x3e, 0x21, 0x1b, 0x96, 0xbe, 0xc4, 0x84, 0x37, 0x3e, 0x14, 0xb0, 0x43, 0xbd, 0x98, 0x23, 0x95, 0x3b, 0x2f, 0x02, 0x34, 0x3f, 0xec, 0x84, 0xb7, 0xbb, 0x42, 0xb6, 0x52, 0xbd, 0x14, 0x76, 0x4e, 0x3a, 0x81, 0xe4, 0x2c, 0x3d, 0x3c, 0x93, 0x94, 0xbc, 0x33, 0x9b, 0x21, 0x3d, 0x06, 0xdf, 0xad, 0x3d, 0x56, 0x0a, 0x5e, 0xbe, 0xca, 0xf2, 0x32, 0x3c, 0x43, 0x73, 0x72, 0xbb, 0x9c, 0x8b, 0x90, 0xbe, 0x39, 0x7d, 0x10, 0xbf, 0xbc, 0xea, 0x0a, 0xbf, 0x74, 0x27, 0x9a, 0xbd, 0x90, 0x1c, 0x24, 0xbd, 0x7c, 0xdc, 0xe1, 0x3e, 0x65, 0x46, 0x94, 0x3e, 0x6a, 0x0a, 0x4b, 0xbc, 0xca, 0x24, 0x4e, 0x3e, 0xa1, 0x10, 0x6d, 0x3e, 0x3a, 0x57, 0x57, 0xbe, 0x39, 0x2b, 0x04, 0xbd, 0xd1, 0xbe, 0x78, 0x3e, 0xbd, 0xd2, 0x7d, 0x3d, 0xdf, 0xe4, 0xcc, 0xbe, 0xad, 0x32, 0xaa, 0x3c, 0xb9, 0xd4, 0x2a, 0xbe, 0xcc, 0x18, 0x6d, 0xbd, 0xec, 0x82, 0xd9, 0xba, 0x4c, 0xf9, 0x92, 0xbd, 0x97, 0x99, 0xc2, 0xbc, 0xcc, 0x71, 0x1b, 0x3f, 0xab, 0x02, 0x7a, 0x3e, 0x11, 0xa0, 0x5e, 0x3d, 0x41, 0x94, 0xa6, 0xbd, 0x62, 0xab, 0x06, 0x3d, 0x1e, 0xbd, 0x35, 0x3d, 0x4a, 0xca, 0x9e, 0x3d, 0xae, 0xf3, 0x38, 0xbe, 0xa4, 0x2c, 0x74, 0xbd, 0x6f, 0x07, 0xcc, 0x3e, 0xce, 0x25, 0x0c, 0xbb, 0x10, 0x81, 0xd3, 0xbd, 0x9a, 0x9d, 0x7a, 0x3e, 0x48, 0x3f, 0x94, 0x3d, 0xe1, 0xc6, 0x95, 0xbd, 0x91, 0x50, 0xb7, 0xbe, 0x94, 0xc6, 0xd0, 0x3e, 0x39, 0xe1, 0xe9, 0xbd, 0x98, 0x86, 0xe0, 0xbc, 0x19, 0xd4, 0xca, 0x3a, 0x80, 0x17, 0x14, 0x3e, 0x5b, 0xc5, 0x1d, 0xbe, 0xec, 0x7e, 0xd9, 0xbc, 0x72, 0xde, 0x61, 0xbd, 0x26, 0xda, 0xce, 0xba, 0x2e, 0xc7, 0xe0, 0xbe, 0xeb, 0x95, 0x43, 0xbd, 0x7f, 0xf9, 0xcf, 0xbc, 0x75, 0xbf, 0x80, 0x3e, 0xa5, 0xc4, 0xbd, 0x3d, 0x7f, 0xf4, 0x34, 0xbd, 0xbc, 0xd2, 0x82, 0xbd, 0xbc, 0x8e, 0x88, 0xbe, 0x32, 0x8d, 0xa4, 0xbe, 0x00, 0x0f, 0x6b, 0xbb, 0x6e, 0xa0, 0xd6, 0xbd, 0x58, 0x84, 0x87, 0xbe, 0x5a, 0x6d, 0xb8, 0x3d, 0xc9, 0x7b, 0x05, 0x3e, 0xc9, 0xb2, 0x6e, 0x3e, 0xdf, 0xbb, 0x5c, 0xbd, 0x5d, 0x3b, 0xd8, 0xbd, 0x78, 0x5a, 0x04, 0x3e, 0xa1, 0x98, 0xfe, 0xbe, 0x71, 0x07, 0xa9, 0x3e, 0x93, 0x25, 0x63, 0xbe, 0x96, 0xd2, 0x6e, 0x3e, 0xe6, 0xcb, 0x9a, 0x3c, 0xdf, 0xb4, 0xca, 0xbe, 0x4a, 0x60, 0x00, 0x3c, 0x0d, 0x8e, 0x39, 0xbe, 0x25, 0x29, 0xf1, 0xbc, 0xeb, 0xed, 0x24, 0xbe, 0xed, 0x71, 0x57, 0xbd, 0x67, 0x01, 0x32, 0x3e, 0xa9, 0x1c, 0x90, 0x3e, 0x01, 0x26, 0xae, 0x3d, 0xda, 0x7f, 0x26, 0x3d, 0x7f, 0x51, 0x15, 0xbd, 0x38, 0xea, 0xbd, 0x3e, 0xac, 0x76, 0x78, 0x3e, 0xd4, 0xe2, 0x22, 0x3e, 0x6d, 0x69, 0x03, 0xbc, 0x67, 0x7f, 0xdc, 0x3d, 0x37, 0x69, 0xc3, 0xbe, 0x81, 0xb6, 0x6f, 0x3e, 0xba, 0xc4, 0xf7, 0x3c, 0x46, 0x41, 0x44, 0xbe, 0xd7, 0xea, 0x12, 0xbe, 0xff, 0x73, 0xa8, 0x3a, 0x89, 0xf3, 0x02, 0x3e, 0x2b, 0xab, 0x1c, 0xbe, 0x5f, 0xb2, 0x78, 0x3e, 0x8b, 0xcb, 0xa4, 0x3c, 0x57, 0x18, 0x1f, 0xbe, 0xfb, 0x9d, 0xcd, 0x3e, 0x53, 0x13, 0xef, 0x3d, 0x34, 0x69, 0x51, 0xbd, 0x43, 0x62, 0x08, 0x3e, 0xdb, 0x19, 0xc2, 0xbd, 0x7e, 0x2d, 0x4a, 0x3e, 0x3c, 0x0a, 0x2d, 0x3e, 0x18, 0xfd, 0x0c, 0xbd, 0x09, 0x6b, 0xfe, 0x3e, 0x17, 0xcc, 0x90, 0x3c, 0xb2, 0x9e, 0x0f, 0x3d, 0x72, 0xee, 0xae, 0x3b, 0xd9, 0x71, 0xad, 0x3d, 0xa8, 0x2c, 0xa8, 0xbb, 0x58, 0x51, 0x50, 0xbc, 0x58, 0xc8, 0x22, 0x3b, 0x26, 0x6f, 0x2b, 0xbd, 0x2a, 0x8b, 0x16, 0xbf, 0xba, 0xb3, 0x96, 0xbe, 0xa0, 0x4f, 0x84, 0xbb, 0x6b, 0x85, 0xb7, 0x3d, 0xf3, 0xb0, 0xf2, 0xba, 0xcd, 0xaa, 0x36, 0xbd, 0x08, 0x01, 0x68, 0x3d, 0x26, 0xdb, 0x16, 0xbd, 0x96, 0x02, 0x01, 0xbf, 0x18, 0x19, 0x8f, 0xbe, 0x66, 0xc6, 0x95, 0xbd, 0x12, 0x3d, 0x9e, 0xbe, 0xdb, 0xb9, 0xb8, 0x3b, 0x42, 0xae, 0x71, 0x3e, 0x2f, 0x3d, 0x89, 0xbc, 0x31, 0x12, 0x10, 0xbe, 0x2d, 0xcc, 0x14, 0x3e, 0x3f, 0x32, 0xb4, 0xbd, 0xb3, 0xdc, 0x41, 0xbb, 0xc8, 0xa3, 0x24, 0xbe, 0xca, 0xae, 0x1f, 0xbe, 0x2f, 0xae, 0xa7, 0x3e, 0x5c, 0x45, 0x4a, 0xbb, 0x3c, 0x7d, 0x30, 0x3e, 0x06, 0x76, 0x1c, 0x3d, 0xb8, 0xcf, 0x9c, 0x3d, 0xd7, 0x8f, 0xf3, 0x3b, 0x17, 0x2c, 0x29, 0x3c, 0xcc, 0x75, 0xa0, 0x3d, 0x4a, 0x43, 0x0c, 0x3c, 0xb0, 0x0c, 0x1e, 0xbe, 0x39, 0xca, 0x9c, 0x3e, 0x3a, 0x4f, 0xfe, 0xbd, 0x97, 0xfe, 0x70, 0x3e, 0x63, 0x95, 0x92, 0xbe, 0x51, 0xf3, 0x2b, 0x3f, 0x8c, 0x8a, 0x6a, 0xbd, 0x7b, 0x05, 0xc0, 0x3c, 0x06, 0x85, 0x77, 0x3c, 0x06, 0x59, 0x01, 0xbe, 0x6d, 0xc9, 0xc8, 0xbb, 0x4a, 0x28, 0xee, 0x3c, 0xda, 0xa9, 0xe8, 0xbc, 0x0f, 0x19, 0x3c, 0x3e, 0xbb, 0xeb, 0x8f, 0xbc, 0x15, 0x67, 0xcd, 0xbc, 0x61, 0x77, 0xed, 0xbd, 0xaf, 0xd7, 0x06, 0x3f, 0xde, 0xb5, 0xa7, 0xbb, 0xd2, 0x3d, 0xc9, 0xbd, 0x54, 0x97, 0xea, 0xbd, 0xa7, 0x69, 0x83, 0x3c, 0x8b, 0x4b, 0x9a, 0xbb, 0x5c, 0xe6, 0xd5, 0x39, 0x98, 0x4a, 0x6d, 0xbc, 0xdd, 0xca, 0x51, 0xbe, 0x66, 0x0e, 0xab, 0xbe, 0x0b, 0xf0, 0xe0, 0x3c, 0xec, 0x59, 0x9f, 0xbc, 0x1c, 0xfc, 0xd2, 0x3e, 0xee, 0xad, 0x9e, 0x3e, 0x6b, 0x3d, 0xf3, 0x3d, 0x38, 0x8a, 0x8e, 0xbc, 0xbd, 0x08, 0x0d, 0xbe, 0x3b, 0x62, 0x86, 0x3e, 0xf7, 0x7d, 0x26, 0x3d, 0x82, 0xca, 0x39, 0xbe, 0x6f, 0x0d, 0xff, 0xbd, 0x88, 0xbb, 0x34, 0x3d, 0x7f, 0x22, 0x0c, 0x3e, 0x79, 0x81, 0x06, 0x3e, 0xc5, 0x0a, 0xc0, 0xbe, 0xeb, 0x75, 0x37, 0x3d, 0x5a, 0x69, 0x8f, 0xbe, 0x34, 0x3e, 0x93, 0x3e, 0x57, 0xda, 0x24, 0x3c, 0xf1, 0x63, 0x56, 0x3b, 0x96, 0x42, 0xa7, 0xbe, 0x0f, 0xb2, 0xac, 0x3b, 0x40, 0x4d, 0x40, 0x3d, 0xbe, 0x43, 0x0c, 0x3e, 0xbe, 0x59, 0xc0, 0xbd, 0x14, 0x37, 0x8a, 0xbc, 0xb2, 0xde, 0xa2, 0xbd, 0x8e, 0x9d, 0x56, 0x3e, 0x04, 0xbc, 0xb5, 0xbe, 0x25, 0xa5, 0xbc, 0xbd, 0xe2, 0xdc, 0xaf, 0xbe, 0x73, 0xe2, 0x26, 0xbe, 0x03, 0xa0, 0xb3, 0x3d, 0xcd, 0x8b, 0xca, 0xbd, 0xec, 0x31, 0x92, 0x3e, 0xd0, 0xfc, 0x13, 0x3d, 0x9d, 0x8a, 0x85, 0x3d, 0x5b, 0xbf, 0x1d, 0xbd, 0x98, 0xdb, 0x31, 0xbe, 0xe4, 0x70, 0x7d, 0xbe, 0x17, 0x6c, 0x67, 0xbe, 0xd8, 0x6a, 0x2e, 0xbd, 0x13, 0x57, 0x22, 0xbe, 0x3c, 0x32, 0xa7, 0xbe, 0x7e, 0x07, 0xa8, 0x3e, 0x6a, 0xee, 0x39, 0x3d, 0xab, 0x37, 0x85, 0x3e, 0x61, 0x30, 0xe4, 0xbd, 0x6a, 0x1e, 0x4e, 0x3e, 0x3e, 0x28, 0x79, 0x3c, 0xa4, 0xb8, 0x9b, 0x3d, 0xe6, 0xba, 0x6a, 0x3e, 0x25, 0x18, 0x6d, 0xbd, 0xbd, 0x5a, 0xca, 0x3d, 0xdb, 0x6f, 0x29, 0x3e, 0xc8, 0xc0, 0x2e, 0x3e, 0x23, 0x92, 0x24, 0x3e, 0x45, 0x37, 0x6e, 0x3e, 0x44, 0x69, 0x43, 0xbe, 0x62, 0x28, 0x95, 0xbb, 0x34, 0x6e, 0x80, 0x3d, 0xbd, 0x6a, 0x0c, 0xbe, 0xb8, 0xb0, 0xf1, 0xbe, 0xba, 0x55, 0x09, 0xbd, 0x40, 0x60, 0xd7, 0x3d, 0x89, 0xe0, 0xa1, 0xbe, 0x7a, 0xcf, 0x29, 0xbe, 0xc2, 0x8d, 0xc0, 0x3e, 0x9d, 0x36, 0xaa, 0xbe, 0x47, 0x9f, 0x14, 0xbd, 0x21, 0x01, 0xb9, 0x3e, 0xe1, 0xf1, 0xfa, 0xbd, 0x6a, 0x40, 0xa6, 0x3d, 0xee, 0x0f, 0xec, 0x3d, 0xc3, 0x2f, 0xd7, 0xbc, 0xe6, 0x0e, 0x1b, 0x3e, 0xd3, 0x0c, 0x1c, 0xbc, 0x98, 0xfe, 0x76, 0x3d, 0xd4, 0x95, 0x9b, 0x3e, 0x8e, 0x39, 0xd1, 0xba, 0x12, 0xe2, 0x08, 0x3f, 0x1f, 0xe6, 0x28, 0x3e, 0x8d, 0x48, 0xaf, 0xbd, 0x97, 0x6f, 0x65, 0x3d, 0x6b, 0x9e, 0xab, 0x3b, 0xd4, 0x10, 0x2b, 0x3d, 0xb2, 0x40, 0x34, 0xbf, 0xa5, 0xca, 0x90, 0xbd, 0xb4, 0x8e, 0x99, 0x3e, 0x9e, 0x25, 0x5b, 0x3d, 0xc4, 0xdd, 0xd4, 0xbc, 0xff, 0x2c, 0xb9, 0xbc, 0x38, 0x3d, 0xa2, 0x3e, 0x59, 0x9f, 0xb1, 0x3b, 0x4c, 0x32, 0xb1, 0xbc, 0x3c, 0xdb, 0x8c, 0x3e, 0x47, 0xb7, 0xf3, 0x3d, 0x56, 0x65, 0x01, 0x3d, 0x7d, 0xa6, 0xde, 0x3d, 0x85, 0x83, 0x2c, 0xbe, 0xf8, 0xf6, 0xac, 0x3e, 0xd3, 0x4d, 0xbb, 0xbd, 0xe5, 0xd5, 0x5e, 0x3d, 0xe4, 0x0c, 0x6a, 0x3e, 0xc7, 0x38, 0x2f, 0x3d, 0xd2, 0x3c, 0x3b, 0x3d, 0x0b, 0x89, 0x36, 0xbc, 0x2d, 0xd9, 0x24, 0x3d, 0x3b, 0xdb, 0xc8, 0x3c, 0x86, 0xf8, 0xc0, 0x3d, 0x0a, 0x1e, 0xea, 0x3d, 0x14, 0x01, 0xab, 0xbe, 0x90, 0x04, 0x6c, 0xbf, 0xa2, 0x46, 0x99, 0x3d, 0x9b, 0x29, 0x7e, 0xbe, 0xb4, 0x8c, 0x15, 0xbf, 0x34, 0x88, 0xbd, 0xbd, 0x84, 0x5e, 0x6c, 0xbd, 0xce, 0x8a, 0xa6, 0xbd, 0x93, 0x4e, 0xf7, 0x3d, 0xa2, 0x5b, 0x18, 0xbd, 0x26, 0x7b, 0xa2, 0x3d, 0x28, 0x60, 0x37, 0x3f, 0xc7, 0x5d, 0x22, 0xbd, 0x3e, 0x1e, 0xdf, 0x3b, 0xbd, 0xa9, 0x42, 0x3d, 0xeb, 0x2c, 0x29, 0xbe, 0x90, 0x73, 0x7e, 0x3d, 0x0a, 0x79, 0x86, 0xbb, 0x1c, 0x9e, 0xa4, 0x3c, 0x88, 0x61, 0xa0, 0xbe, 0xee, 0x99, 0x85, 0xbe, 0x15, 0x4d, 0xc4, 0xbe, 0x60, 0x5a, 0x91, 0xbc, 0x22, 0xaf, 0x34, 0x3d, 0x80, 0x34, 0x97, 0x3d, 0xed, 0xc4, 0x3a, 0xbc, 0xea, 0x37, 0x05, 0xbe, 0x2e, 0x99, 0xc0, 0x3b, 0xd2, 0xa2, 0x7a, 0xbd, 0x9b, 0xa1, 0xae, 0x3e, 0xdc, 0x6a, 0xfd, 0xbd, 0xda, 0xc2, 0xe5, 0x3d, 0xfa, 0xc3, 0xe5, 0x3d, 0xaf, 0x9d, 0xb1, 0xbe, 0xe7, 0xb4, 0x31, 0xbe, 0xeb, 0x2f, 0x10, 0x3e, 0xe8, 0x62, 0x8c, 0x3d, 0xdf, 0xed, 0x85, 0xba, 0x1e, 0x75, 0xfd, 0x3a, 0xb3, 0x06, 0x0c, 0x3e, 0xf1, 0x86, 0x65, 0x3e, 0x61, 0x94, 0x3b, 0xbf, 0xd4, 0x20, 0x42, 0x3c, 0x96, 0x59, 0x7f, 0xbd, 0x0e, 0x67, 0x57, 0xba, 0xea, 0xb3, 0xb0, 0xbe, 0x20, 0x53, 0xf3, 0xbd, 0xf4, 0xf2, 0xa6, 0xbe, 0x3a, 0x98, 0xdf, 0xbd, 0x59, 0x92, 0xd1, 0x3d, 0x53, 0xe5, 0xe9, 0xbd, 0x32, 0x22, 0x4a, 0x3f, 0xf5, 0x4b, 0x37, 0xbd, 0xbb, 0x42, 0x02, 0xbc, 0x0c, 0xbd, 0x52, 0xbc, 0x34, 0xc4, 0x9f, 0xbd, 0xca, 0xf1, 0x61, 0xbd, 0x35, 0xcf, 0xf8, 0xbb, 0xe0, 0x9c, 0xae, 0x3b, 0xb1, 0x48, 0x8a, 0x3e, 0x94, 0xf2, 0xe7, 0xbd, 0x48, 0x14, 0x13, 0xbe, 0x4d, 0x2e, 0x0e, 0xbd, 0xec, 0x5f, 0xbd, 0xbd, 0x9d, 0x40, 0xca, 0xbe, 0xf2, 0x20, 0x12, 0xbf, 0x77, 0x59, 0xc9, 0xbd, 0xd6, 0xa3, 0x04, 0xbe, 0x02, 0x91, 0x7a, 0xbe, 0xc4, 0x0c, 0xb2, 0xbe, 0x58, 0xc9, 0xdc, 0x3c, 0xe3, 0xfd, 0x77, 0x3e, 0x0f, 0x58, 0x40, 0xbe, 0xd8, 0xc3, 0xbd, 0xbe, 0xd8, 0x58, 0x9d, 0x3c, 0xd8, 0x1d, 0x3f, 0xbe, 0xd0, 0x6a, 0xa9, 0x3d, 0x32, 0x60, 0xb2, 0xbc, 0xa9, 0xc5, 0x0f, 0xbe, 0x27, 0x58, 0xa3, 0xbe, 0x72, 0x7c, 0x74, 0xbd, 0x38, 0x24, 0x8d, 0x3c, 0xf2, 0x12, 0x2a, 0x3d, 0xe4, 0x0f, 0x8f, 0xbe, 0xed, 0x63, 0x18, 0x3e, 0xa2, 0xd8, 0x45, 0xbb, 0xad, 0xbe, 0xf7, 0xbb, 0x69, 0xf4, 0x10, 0x3e, 0x2c, 0x6b, 0x5b, 0x3e, 0xce, 0xfe, 0x28, 0xbd, 0x85, 0x95, 0x0b, 0x3e, 0xcc, 0x6b, 0x3e, 0xbe, 0x33, 0xc8, 0xd6, 0x3e, 0x8f, 0x97, 0xda, 0xbc, 0xcc, 0x21, 0x54, 0xbd, 0x48, 0xe3, 0xd9, 0xbc, 0x31, 0x74, 0xe8, 0x3d, 0x1a, 0x86, 0x04, 0x3d, 0x5e, 0x2d, 0xcf, 0x3c, 0x0a, 0x86, 0x9d, 0xbe, 0x72, 0x08, 0x2f, 0x3e, 0x6d, 0x21, 0x49, 0x3e, 0xab, 0x87, 0x67, 0xbc, 0x8a, 0x06, 0x9f, 0x3e, 0x57, 0x83, 0x33, 0xbc, 0x8b, 0x7c, 0x0a, 0x3d, 0xb7, 0x36, 0x9a, 0x3d, 0xf2, 0x6a, 0x39, 0x3c, 0x63, 0xbb, 0x06, 0xbd, 0x2e, 0xa5, 0x2d, 0x3b, 0xbf, 0xff, 0x1e, 0xbd, 0x5a, 0x1f, 0xfa, 0xbe, 0x18, 0xa7, 0x47, 0xbe, 0xec, 0x4a, 0x2c, 0x3d, 0x47, 0x82, 0x91, 0xbd, 0xa9, 0x42, 0x7f, 0xbe, 0x20, 0xad, 0x1e, 0xbf, 0x50, 0x3d, 0x59, 0xbd, 0x79, 0xf9, 0xd4, 0xbc, 0xcc, 0x37, 0xac, 0x3b, 0xf6, 0xdc, 0x79, 0x3d, 0x88, 0x81, 0x3b, 0x3d, 0x09, 0xe2, 0x34, 0x3d, 0x13, 0xf9, 0x6b, 0x3b, 0xac, 0x0c, 0x06, 0x3f, 0x04, 0x94, 0xf5, 0xbc, 0xed, 0xf4, 0x20, 0xbc, 0xd3, 0x21, 0x44, 0x3d, 0xbd, 0x3a, 0x20, 0xbc, 0x40, 0xcc, 0xa8, 0x3c, 0xb2, 0xa9, 0xb3, 0x3a, 0xc3, 0x12, 0x7a, 0xbe, 0xfc, 0x36, 0x86, 0xbd, 0x8b, 0x7a, 0x07, 0xbd, 0x54, 0x7f, 0xb3, 0x3b, 0xce, 0x4e, 0x75, 0x3e, 0x0d, 0xf4, 0x9d, 0x3e, 0x39, 0xd6, 0x3b, 0xbe, 0x31, 0x81, 0x4e, 0xbe, 0x6c, 0xb3, 0x20, 0xbe, 0x7d, 0x14, 0xac, 0x3c, 0x11, 0x2a, 0x97, 0x3e, 0x93, 0xad, 0xe7, 0xbd, 0xd5, 0x39, 0x58, 0xbe, 0x20, 0x02, 0x7d, 0x3d, 0x2a, 0x4a, 0xa4, 0x3d, 0xaa, 0xab, 0x88, 0xbd, 0xbe, 0xaf, 0x77, 0xbd, 0x73, 0x27, 0x06, 0xbe, 0x01, 0xeb, 0x9f, 0x3e, 0xaf, 0xe7, 0x14, 0x3d, 0x95, 0x6a, 0x2d, 0x3c, 0x86, 0x9d, 0xc1, 0x3d, 0xaa, 0x54, 0xa3, 0x3b, 0x1e, 0x64, 0x8f, 0x3d, 0x3b, 0xce, 0x6f, 0x3e, 0xf0, 0x6f, 0xed, 0x3d, 0xb3, 0x75, 0x32, 0x3c, 0x0a, 0x47, 0x75, 0xbd, 0x92, 0xfa, 0xdb, 0x3e, 0x4d, 0x62, 0xa0, 0x3e, 0xac, 0x7f, 0xe1, 0x3d, 0x36, 0xd6, 0x56, 0xb9, 0xae, 0xfd, 0xff, 0xff, 0x04, 0x00, 0x00, 0x00, 0x00, 0x01, 0x00, 0x00, 0xb6, 0x88, 0xf3, 0x3e, 0x86, 0x9f, 0xd3, 0x3d, 0x68, 0x1d, 0x2a, 0xbf, 0x71, 0x6d, 0x2c, 0xbe, 0xc4, 0x7a, 0x7c, 0x3e, 0x6b, 0x04, 0x9a, 0xbe, 0xa1, 0x79, 0x6b, 0x3e, 0x44, 0x0a, 0xff, 0xbe, 0x9c, 0x04, 0xa0, 0xbe, 0xc0, 0x0b, 0x51, 0xbd, 0x19, 0xa2, 0x91, 0xbe, 0x88, 0x7b, 0xc1, 0xbd, 0x5c, 0x8e, 0x98, 0xbe, 0xa8, 0x94, 0x56, 0xbd, 0x92, 0xa7, 0x67, 0xbe, 0xf4, 0xe5, 0xbc, 0xbd, 0x61, 0x54, 0x3b, 0xbe, 0xe6, 0x20, 0x33, 0xbd, 0x43, 0x09, 0xfd, 0xbd, 0xd1, 0x33, 0xc9, 0x3d, 0xb8, 0x94, 0x95, 0xbe, 0x38, 0x01, 0x24, 0xbd, 0x54, 0x8a, 0xee, 0xbe, 0xc8, 0x75, 0xd2, 0xbe, 0x70, 0x95, 0xa1, 0xbe, 0xf6, 0xb2, 0xcc, 0xbe, 0xc6, 0xfd, 0x47, 0xbe, 0x5c, 0xd7, 0x1e, 0xbe, 0x02, 0xa3, 0xb5, 0xbe, 0xbe, 0x59, 0xd3, 0xbe, 0xe8, 0x2e, 0xd9, 0xbe, 0x1f, 0x1b, 0xdf, 0xbd, 0xa8, 0x96, 0x99, 0xbe, 0xa2, 0xe5, 0xba, 0xbe, 0x37, 0x9a, 0xf0, 0xbe, 0x6f, 0x2c, 0x64, 0x3e, 0x4a, 0xa0, 0x3e, 0x3e, 0x0e, 0xf9, 0x07, 0xbf, 0x30, 0x2f, 0x3f, 0xbd, 0x59, 0x11, 0xc7, 0x3e, 0xf4, 0x5b, 0x14, 0xbe, 0xb6, 0xb8, 0x91, 0xbe, 0x70, 0x2c, 0x94, 0xbd, 0x10, 0x4f, 0xb3, 0x3d, 0x56, 0x69, 0xa1, 0x3e, 0x3c, 0x6d, 0x1b, 0xbe, 0x20, 0xe2, 0x0a, 0x3b, 0x77, 0x76, 0xca, 0xbe, 0x35, 0x43, 0xba, 0xbe, 0xc4, 0x4d, 0xa7, 0xbe, 0xdf, 0x33, 0xaf, 0xbe, 0xf0, 0xba, 0xba, 0xbe, 0xbe, 0xda, 0x34, 0xbe, 0xea, 0x75, 0x0c, 0xbf, 0x27, 0xa4, 0x91, 0xbe, 0x7b, 0x8d, 0x33, 0xbe, 0x38, 0xa2, 0x23, 0x3c, 0xd2, 0x9a, 0xfa, 0xbe, 0xc8, 0x36, 0x9f, 0x3e, 0x92, 0x71, 0xea, 0xbe, 0x46, 0x65, 0xb1, 0xbb, 0x20, 0x47, 0xf3, 0xbe, 0xda, 0x33, 0x0a, 0xbe, 0x5e, 0x7c, 0xf9, 0xbc, 0xba, 0xfe, 0xff, 0xff, 0x04, 0x00, 0x00, 0x00, 0x80, 0x00, 0x00, 0x00, 0x57, 0x5f, 0xd4, 0xbe, 0x71, 0xa4, 0xe8, 0x3f, 0x80, 0x3a, 0x0b, 0x40, 0x9d, 0x5b, 0x37, 0xc0, 0xc5, 0x61, 0x2f, 0x40, 0xdd, 0x6b, 0xc9, 0x3f, 0x92, 0x52, 0xff, 0x3f, 0xd1, 0x40, 0xa5, 0x3f, 0x5b, 0xe4, 0x4f, 0x3f, 0xc1, 0x6c, 0xb3, 0x3e, 0x6e, 0x9b, 0xd9, 0xbe, 0x78, 0xfe, 0x44, 0x40, 0xe6, 0x92, 0xf8, 0xbe, 0x81, 0x37, 0x17, 0xbf, 0xa6, 0x42, 0xdf, 0x3e, 0x75, 0x8f, 0xb7, 0x3f, 0x3a, 0xd1, 0x06, 0xc0, 0x19, 0x7c, 0x0b, 0x40, 0x37, 0x8b, 0x09, 0xc0, 0xfa, 0x5c, 0x4f, 0xc0, 0xd2, 0x99, 0x33, 0x40, 0x2f, 0x63, 0x5c, 0x40, 0x5f, 0x47, 0xad, 0xbf, 0xb9, 0xd9, 0xd9, 0x3f, 0xbd, 0xe7, 0x01, 0x40, 0xa6, 0xfb, 0x61, 0x3f, 0x27, 0x40, 0x86, 0x3f, 0x5b, 0x8d, 0x14, 0x40, 0x48, 0xc8, 0x0e, 0x40, 0xe0, 0x48, 0x86, 0xbd, 0x8e, 0xbf, 0x96, 0x3f, 0x56, 0x7a, 0x7d, 0x3f, 0x46, 0xff, 0xff, 0xff, 0x04, 0x00, 0x00, 0x00, 0x18, 0x00, 0x00, 0x00, 0xe0, 0x6c, 0x81, 0xbb, 0xca, 0xdf, 0xed, 0x3f, 0x3c, 0x4b, 0x8e, 0x3d, 0x1a, 0x1c, 0xbb, 0xbf, 0xdd, 0xf0, 0x7a, 0xbe, 0xb0, 0x37, 0xb7, 0xbf, 0x24, 0xfa, 0xff, 0xff, 0x28, 0xfa, 0xff, 0xff, 0x0f, 0x00, 0x00, 0x00, 0x4d, 0x4c, 0x49, 0x52, 0x20, 0x43, 0x6f, 0x6e, 0x76, 0x65, 0x72, 0x74, 0x65, 0x64, 0x2e, 0x00, 0x01, 0x00, 0x00, 0x00, 0x14, 0x00, 0x00, 0x00, 0x00, 0x00, 0x0e, 0x00, 0x18, 0x00, 0x14, 0x00, 0x10, 0x00, 0x0c, 0x00, 0x08, 0x00, 0x04, 0x00, 0x0e, 0x00, 0x00, 0x00, 0x14, 0x00, 0x00, 0x00, 0x1c, 0x00, 0x00, 0x00, 0x34, 0x01, 0x00, 0x00, 0x38, 0x01, 0x00, 0x00, 0x3c, 0x01, 0x00, 0x00, 0x04, 0x00, 0x00, 0x00, 0x6d, 0x61, 0x69, 0x6e, 0x00, 0x00, 0x00, 0x00, 0x04, 0x00, 0x00, 0x00, 0xdc, 0x00, 0x00, 0x00, 0x94, 0x00, 0x00, 0x00, 0x50, 0x00, 0x00, 0x00, 0x14, 0x00, 0x00, 0x00, 0x00, 0x00, 0x0e, 0x00, 0x1a, 0x00, 0x14, 0x00, 0x10, 0x00, 0x0c, 0x00, 0x0b, 0x00, 0x04, 0x00, 0x0e, 0x00, 0x00, 0x00, 0x1c, 0x00, 0x00, 0x00, 0x00, 0x00, 0x00, 0x09, 0x1c, 0x00, 0x00, 0x00, 0x20, 0x00, 0x00, 0x00, 0x01, 0x00, 0x00, 0x00, 0x00, 0x00, 0x06, 0x00, 0x08, 0x00, 0x04, 0x00, 0x06, 0x00, 0x00, 0x00, 0x00, 0x00, 0x80, 0x3f, 0x01, 0x00, 0x00, 0x00, 0x0a, 0x00, 0x00, 0x00, 0x01, 0x00, 0x00, 0x00, 0x09, 0x00, 0x00, 0x00, 0xce, 0xff, 0xff, 0xff, 0x10, 0x00, 0x00, 0x00, 0x00, 0x00, 0x00, 0x08, 0x0c, 0x00, 0x00, 0x00, 0x10, 0x00, 0x00, 0x00, 0xec, 0xfa, 0xff, 0xff, 0x01, 0x00, 0x00, 0x00, 0x09, 0x00, 0x00, 0x00, 0x03, 0x00, 0x00, 0x00, 0x08, 0x00, 0x00, 0x00, 0x06, 0x00, 0x00, 0x00, 0x01, 0x00, 0x00, 0x00, 0x00, 0x00, 0x0e, 0x00, 0x14, 0x00, 0x00, 0x00, 0x10, 0x00, 0x0c, 0x00, 0x0b, 0x00, 0x04, 0x00, 0x0e, 0x00, 0x00, 0x00, 0x10, 0x00, 0x00, 0x00, 0x00, 0x00, 0x00, 0x08, 0x10, 0x00, 0x00, 0x00, 0x14, 0x00, 0x00, 0x00, 0xba, 0xff, 0xff, 0xff, 0x00, 0x00, 0x00, 0x01, 0x01, 0x00, 0x00, 0x00, 0x08, 0x00, 0x00, 0x00, 0x03, 0x00, 0x00, 0x00, 0x07, 0x00, 0x00, 0x00, 0x05, 0x00, 0x00, 0x00, 0x02, 0x00, 0x00, 0x00, 0x00, 0x00, 0x0e, 0x00, 0x16, 0x00, 0x00, 0x00, 0x10, 0x00, 0x0c, 0x00, 0x0b, 0x00, 0x04, 0x00, 0x0e, 0x00, 0x00, 0x00, 0x18, 0x00, 0x00, 0x00, 0x00, 0x00, 0x00, 0x08, 0x18, 0x00, 0x00, 0x00, 0x1c, 0x00, 0x00, 0x00, 0x00, 0x00, 0x06, 0x00, 0x08, 0x00, 0x07, 0x00, 0x06, 0x00, 0x00, 0x00, 0x00, 0x00, 0x00, 0x01, 0x01, 0x00, 0x00, 0x00, 0x07, 0x00, 0x00, 0x00, 0x03, 0x00, 0x00, 0x00, 0x00, 0x00, 0x00, 0x00, 0x04, 0x00, 0x00, 0x00, 0x03, 0x00, 0x00, 0x00, 0x01, 0x00, 0x00, 0x00, 0x0a, 0x00, 0x00, 0x00, 0x01, 0x00, 0x00, 0x00, 0x00, 0x00, 0x00, 0x00, 0x0b, 0x00, 0x00, 0x00, 0x2c, 0x04, 0x00, 0x00, 0xb8, 0x03, 0x00, 0x00, 0x48, 0x03, 0x00, 0x00, 0xf0, 0x02, 0x00, 0x00, 0xa4, 0x02, 0x00, 0x00, 0x58, 0x02, 0x00, 0x00, 0x08, 0x02, 0x00, 0x00, 0x74, 0x01, 0x00, 0x00, 0xe0, 0x00, 0x00, 0x00, 0x60, 0x00, 0x00, 0x00, 0x04, 0x00, 0x00, 0x00, 0x16, 0xfc, 0xff, 0xff, 0x00, 0x00, 0x00, 0x01, 0x14, 0x00, 0x00, 0x00, 0x1c, 0x00, 0x00, 0x00, 0x1c, 0x00, 0x00, 0x00, 0x0b, 0x00, 0x00, 0x00, 0x34, 0x00, 0x00, 0x00, 0x02, 0x00, 0x00, 0x00, 0xff, 0xff, 0xff, 0xff, 0x06, 0x00, 0x00, 0x00, 0x00, 0xfc, 0xff, 0xff, 0x19, 0x00, 0x00, 0x00, 0x53, 0x74, 0x61, 0x74, 0x65, 0x66, 0x75, 0x6c, 0x50, 0x61, 0x72, 0x74, 0x69, 0x74, 0x69, 0x6f, 0x6e, 0x65, 0x64, 0x43, 0x61, 0x6c, 0x6c, 0x3a, 0x30, 0x00, 0x00, 0x00, 0x02, 0x00, 0x00, 0x00, 0x01, 0x00, 0x00, 0x00, 0x06, 0x00, 0x00, 0x00, 0x6e, 0xfc, 0xff, 0xff, 0x00, 0x00, 0x00, 0x01, 0x14, 0x00, 0x00, 0x00, 0x1c, 0x00, 0x00, 0x00, 0x1c, 0x00, 0x00, 0x00, 0x0a, 0x00, 0x00, 0x00, 0x58, 0x00, 0x00, 0x00, 0x02, 0x00, 0x00, 0x00, 0xff, 0xff, 0xff, 0xff, 0x06, 0x00, 0x00, 0x00, 0x58, 0xfc, 0xff, 0xff, 0x3c, 0x00, 0x00, 0x00, 0x73, 0x65, 0x71, 0x75, 0x65, 0x6e, 0x74, 0x69, 0x61, 0x6c, 0x5f, 0x31, 0x2f, 0x64, 0x65, 0x6e, 0x73, 0x65, 0x5f, 0x6f, 0x75, 0x74, 0x2f, 0x4d, 0x61, 0x74, 0x4d, 0x75, 0x6c, 0x3b, 0x73, 0x65, 0x71, 0x75, 0x65, 0x6e, 0x74, 0x69, 0x61, 0x6c, 0x5f, 0x31, 0x2f, 0x64, 0x65, 0x6e, 0x73, 0x65, 0x5f, 0x6f, 0x75, 0x74, 0x2f, 0x42, 0x69, 0x61, 0x73, 0x41, 0x64, 0x64, 0x00, 0x00, 0x00, 0x00, 0x02, 0x00, 0x00, 0x00, 0x01, 0x00, 0x00, 0x00, 0x06, 0x00, 0x00, 0x00, 0xea, 0xfc, 0xff, 0xff, 0x00, 0x00, 0x00, 0x01, 0x14, 0x00, 0x00, 0x00, 0x1c, 0x00, 0x00, 0x00, 0x1c, 0x00, 0x00, 0x00, 0x09, 0x00, 0x00, 0x00, 0x6c, 0x00, 0x00, 0x00, 0x02, 0x00, 0x00, 0x00, 0xff, 0xff, 0xff, 0xff, 0x20, 0x00, 0x00, 0x00, 0xd4, 0xfc, 0xff, 0xff, 0x52, 0x00, 0x00, 0x00, 0x73, 0x65, 0x71, 0x75, 0x65, 0x6e, 0x74, 0x69, 0x61, 0x6c, 0x5f, 0x31, 0x2f, 0x64, 0x65, 0x6e, 0x73, 0x65, 0x5f, 0x31, 0x2f, 0x4d, 0x61, 0x74, 0x4d, 0x75, 0x6c, 0x3b, 0x73, 0x65, 0x71, 0x75, 0x65, 0x6e, 0x74, 0x69, 0x61, 0x6c, 0x5f, 0x31, 0x2f, 0x64, 0x65, 0x6e, 0x73, 0x65, 0x5f, 0x31, 0x2f, 0x52, 0x65, 0x6c, 0x75, 0x3b, 0x73, 0x65, 0x71, 0x75, 0x65, 0x6e, 0x74, 0x69, 0x61, 0x6c, 0x5f, 0x31, 0x2f, 0x64, 0x65, 0x6e, 0x73, 0x65, 0x5f, 0x31, 0x2f, 0x42, 0x69, 0x61, 0x73, 0x41, 0x64, 0x64, 0x00, 0x00, 0x02, 0x00, 0x00, 0x00, 0x01, 0x00, 0x00, 0x00, 0x20, 0x00, 0x00, 0x00, 0x7a, 0xfd, 0xff, 0xff, 0x00, 0x00, 0x00, 0x01, 0x14, 0x00, 0x00, 0x00, 0x1c, 0x00, 0x00, 0x00, 0x1c, 0x00, 0x00, 0x00, 0x08, 0x00, 0x00, 0x00, 0x6c, 0x00, 0x00, 0x00, 0x02, 0x00, 0x00, 0x00, 0xff, 0xff, 0xff, 0xff, 0x40, 0x00, 0x00, 0x00, 0x64, 0xfd, 0xff, 0xff, 0x52, 0x00, 0x00, 0x00, 0x73, 0x65, 0x71, 0x75, 0x65, 0x6e, 0x74, 0x69, 0x61, 0x6c, 0x5f, 0x31, 0x2f, 0x64, 0x65, 0x6e, 0x73, 0x65, 0x5f, 0x30, 0x2f, 0x4d, 0x61, 0x74, 0x4d, 0x75, 0x6c, 0x3b, 0x73, 0x65, 0x71, 0x75, 0x65, 0x6e, 0x74, 0x69, 0x61, 0x6c, 0x5f, 0x31, 0x2f, 0x64, 0x65, 0x6e, 0x73, 0x65, 0x5f, 0x30, 0x2f, 0x52, 0x65, 0x6c, 0x75, 0x3b, 0x73, 0x65, 0x71, 0x75, 0x65, 0x6e, 0x74, 0x69, 0x61, 0x6c, 0x5f, 0x31, 0x2f, 0x64, 0x65, 0x6e, 0x73, 0x65, 0x5f, 0x30, 0x2f, 0x42, 0x69, 0x61, 0x73, 0x41, 0x64, 0x64, 0x00, 0x00, 0x02, 0x00, 0x00, 0x00, 0x01, 0x00, 0x00, 0x00, 0x40, 0x00, 0x00, 0x00, 0x7a, 0xfe, 0xff, 0xff, 0x00, 0x00, 0x00, 0x01, 0x10, 0x00, 0x00, 0x00, 0x10, 0x00, 0x00, 0x00, 0x07, 0x00, 0x00, 0x00, 0x2c, 0x00, 0x00, 0x00, 0xe4, 0xfd, 0xff, 0xff, 0x1d, 0x00, 0x00, 0x00, 0x73, 0x65, 0x71, 0x75, 0x65, 0x6e, 0x74, 0x69, 0x61, 0x6c, 0x5f, 0x31, 0x2f, 0x64, 0x65, 0x6e, 0x73, 0x65, 0x5f, 0x6f, 0x75, 0x74, 0x2f, 0x4d, 0x61, 0x74, 0x4d, 0x75, 0x6c, 0x00, 0x00, 0x00, 0x02, 0x00, 0x00, 0x00, 0x06, 0x00, 0x00, 0x00, 0x20, 0x00, 0x00, 0x00, 0xc6, 0xfe, 0xff, 0xff, 0x00, 0x00, 0x00, 0x01, 0x10, 0x00, 0x00, 0x00, 0x10, 0x00, 0x00, 0x00, 0x06, 0x00, 0x00, 0x00, 0x28, 0x00, 0x00, 0x00, 0x30, 0xfe, 0xff, 0xff, 0x1b, 0x00, 0x00, 0x00, 0x73, 0x65, 0x71, 0x75, 0x65, 0x6e, 0x74, 0x69, 0x61, 0x6c, 0x5f, 0x31, 0x2f, 0x64, 0x65, 0x6e, 0x73, 0x65, 0x5f, 0x31, 0x2f, 0x4d, 0x61, 0x74, 0x4d, 0x75, 0x6c, 0x00, 0x02, 0x00, 0x00, 0x00, 0x20, 0x00, 0x00, 0x00, 0x40, 0x00, 0x00, 0x00, 0x0e, 0xff, 0xff, 0xff, 0x00, 0x00, 0x00, 0x01, 0x10, 0x00, 0x00, 0x00, 0x10, 0x00, 0x00, 0x00, 0x05, 0x00, 0x00, 0x00, 0x28, 0x00, 0x00, 0x00, 0x78, 0xfe, 0xff, 0xff, 0x1b, 0x00, 0x00, 0x00, 0x73, 0x65, 0x71, 0x75, 0x65, 0x6e, 0x74, 0x69, 0x61, 0x6c, 0x5f, 0x31, 0x2f, 0x64, 0x65, 0x6e, 0x73, 0x65, 0x5f, 0x30, 0x2f, 0x4d, 0x61, 0x74, 0x4d, 0x75, 0x6c, 0x00, 0x02, 0x00, 0x00, 0x00, 0x40, 0x00, 0x00, 0x00, 0x08, 0x00, 0x00, 0x00, 0x56, 0xff, 0xff, 0xff, 0x00, 0x00, 0x00, 0x01, 0x10, 0x00, 0x00, 0x00, 0x10, 0x00, 0x00, 0x00, 0x04, 0x00, 0x00, 0x00, 0x38, 0x00, 0x00, 0x00, 0xc0, 0xfe, 0xff, 0xff, 0x2b, 0x00, 0x00, 0x00, 0x73, 0x65, 0x71, 0x75, 0x65, 0x6e, 0x74, 0x69, 0x61, 0x6c, 0x5f, 0x31, 0x2f, 0x64, 0x65, 0x6e, 0x73, 0x65, 0x5f, 0x30, 0x2f, 0x42, 0x69, 0x61, 0x73, 0x41, 0x64, 0x64, 0x2f, 0x52, 0x65, 0x61, 0x64, 0x56, 0x61, 0x72, 0x69, 0x61, 0x62, 0x6c, 0x65, 0x4f, 0x70, 0x00, 0x01, 0x00, 0x00, 0x00, 0x40, 0x00, 0x00, 0x00, 0xaa, 0xff, 0xff, 0xff, 0x00, 0x00, 0x00, 0x01, 0x10, 0x00, 0x00, 0x00, 0x10, 0x00, 0x00, 0x00, 0x03, 0x00, 0x00, 0x00, 0x38, 0x00, 0x00, 0x00, 0x14, 0xff, 0xff, 0xff, 0x2b, 0x00, 0x00, 0x00, 0x73, 0x65, 0x71, 0x75, 0x65, 0x6e, 0x74, 0x69, 0x61, 0x6c, 0x5f, 0x31, 0x2f, 0x64, 0x65, 0x6e, 0x73, 0x65, 0x5f, 0x31, 0x2f, 0x42, 0x69, 0x61, 0x73, 0x41, 0x64, 0x64, 0x2f, 0x52, 0x65, 0x61, 0x64, 0x56, 0x61, 0x72, 0x69, 0x61, 0x62, 0x6c, 0x65, 0x4f, 0x70, 0x00, 0x01, 0x00, 0x00, 0x00, 0x20, 0x00, 0x00, 0x00, 0x00, 0x00, 0x16, 0x00, 0x18, 0x00, 0x14, 0x00, 0x00, 0x00, 0x10, 0x00, 0x0c, 0x00, 0x08, 0x00, 0x00, 0x00, 0x00, 0x00, 0x00, 0x00, 0x07, 0x00, 0x16, 0x00, 0x00, 0x00, 0x00, 0x00, 0x00, 0x01, 0x10, 0x00, 0x00, 0x00, 0x10, 0x00, 0x00, 0x00, 0x02, 0x00, 0x00, 0x00, 0x3c, 0x00, 0x00, 0x00, 0x80, 0xff, 0xff, 0xff, 0x2d, 0x00, 0x00, 0x00, 0x73, 0x65, 0x71, 0x75, 0x65, 0x6e, 0x74, 0x69, 0x61, 0x6c, 0x5f, 0x31, 0x2f, 0x64, 0x65, 0x6e, 0x73, 0x65, 0x5f, 0x6f, 0x75, 0x74, 0x2f, 0x42, 0x69, 0x61, 0x73, 0x41, 0x64, 0x64, 0x2f, 0x52, 0x65, 0x61, 0x64, 0x56, 0x61, 0x72, 0x69, 0x61, 0x62, 0x6c, 0x65, 0x4f, 0x70, 0x00, 0x00, 0x00, 0x01, 0x00, 0x00, 0x00, 0x06, 0x00, 0x00, 0x00, 0x00, 0x00, 0x16, 0x00, 0x1c, 0x00, 0x18, 0x00, 0x00, 0x00, 0x14, 0x00, 0x10, 0x00, 0x0c, 0x00, 0x00, 0x00, 0x00, 0x00, 0x08, 0x00, 0x07, 0x00, 0x16, 0x00, 0x00, 0x00, 0x00, 0x00, 0x00, 0x01, 0x14, 0x00, 0x00, 0x00, 0x20, 0x00, 0x00, 0x00, 0x20, 0x00, 0x00, 0x00, 0x01, 0x00, 0x00, 0x00, 0x34, 0x00, 0x00, 0x00, 0x02, 0x00, 0x00, 0x00, 0xff, 0xff, 0xff, 0xff, 0x08, 0x00, 0x00, 0x00, 0x04, 0x00, 0x04, 0x00, 0x04, 0x00, 0x00, 0x00, 0x17, 0x00, 0x00, 0x00, 0x73, 0x65, 0x72, 0x76, 0x69, 0x6e, 0x67, 0x5f, 0x64, 0x65, 0x66, 0x61, 0x75, 0x6c, 0x74, 0x5f, 0x69, 0x6e, 0x70, 0x75, 0x74, 0x3a, 0x30, 0x00, 0x02, 0x00, 0x00, 0x00, 0x01, 0x00, 0x00, 0x00, 0x08, 0x00, 0x00, 0x00, 0x02, 0x00, 0x00, 0x00, 0x20, 0x00, 0x00, 0x00, 0x04, 0x00, 0x00, 0x00, 0xf4, 0xff, 0xff, 0xff, 0x19, 0x00, 0x00, 0x00, 0x00, 0x00, 0x00, 0x19, 0x0c, 0x00, 0x0c, 0x00, 0x0b, 0x00, 0x00, 0x00, 0x00, 0x00, 0x04, 0x00, 0x0c, 0x00, 0x00, 0x00, 0x09, 0x00, 0x00, 0x00, 0x00, 0x00, 0x00, 0x09
};
const int model_data_len = 13556;
